[PAD]
[unused3001]
[UNK]
[CLS]
[SEP]
[MASK]
##er
##en
##ch
d
##ei
##un
##ie
##st
##in
##an
##es
##ein
a
s
##ich
der
##ge
##on
S
w
##te
##ung
##sch
##und
die
v
A
##ar
##or
B
D
##ur
##it
ein
b
##ll
und
##at
z
##as
i
##ten
##hr
##em
in
##us
##gen
n
##al
E
M
##de
K
m
##ter
G
1
##uf
F
##den
##der
er
##lich
f
h
##ach
P
##ber
V
##et
R
##el
##eit
W
##ig
zu
##is
##ra
H
##isch
den
ge
von
T
##icht
des
##am
das
L
##ür
k
##ier
##re
2
##ol
##om
N
I
an
##ut
im
##um
##uch
##and
##ck
g
J
##ben
mit
auf
##ste
##ent
##ion
##ro
ver
##ls
Z
(
##ir
Die
##il
ist
dem
##la
St
be
##rei
Ver
##le
##ahr
##ft
U
##sen
##ger
##ann
19
für
##ah
sich
##se
##kt
aus
20
nicht
Sch
"
An
als
##ungs
eine
##ischen
C
##än
wur
##men
##ver
##au
Be
##ff
##be
##wei
sein
##sp
O
o
##och
##ik
In
un
##ne
##esch
Er
bei
##eil
l
so
##sten
##über
##ungen
war
Re
##ien
nach
##etz
##ün
##cht
wurde
hat
auch
##iel
##ri
##ehr
Ein
##lä
vor
##scha
##gt
Jahr
über
sch
##hn
##stell
##he
t
##ind
##all
##ern
sie
##urch
##hen
##eich
##eu
##aus
##igen
##ät
dass
##rie
##ag
##os
einer
Ab
##ad
##ab
es
##ort
j
wir
Der
Un
am
##ul
##ot
##lie
##ation
wer
Ge
st
-
p
##ster
wie
##schaft
##lichen
##enn
##ang
##ser
zur
##im
ihr
bis
##hal
##rt
##end
um
zum
durch
##ische
##wer
##lle
##rä
werden
unter
##hl
##ück
##ing
##zu
##ru
ent
201
vom
Sp
##tra
200
##mer
##chen
ab
##gel
##eut
##est
##ühr
En
sind
##ige
##op
##ran
Aus
wird
##iv
3
Das
##ör
einem
Ber
##rund
##eiter
##00
##art
einen
Mit
##tet
##nen
##atz
##uss
oder
##ges
Vor
ha
##ön
Pro
Auf
##eits
Ar
##ill
##ed
##her
##iert
##liche
##geb
##ist
##auf
Nach
##pp
##ahl
##oll
##zen
##eutsch
##tel
##ht
##pf
##ert
##ass
##rit
sp
18
##ell
##ord
##eben
##che
##ner
##är
Im
##lin
da
all
sei
##bar
##ähr
##lag
##gl
##ers
nur
noch
##rün
##keit
##det
##alt
##lt
##uß
##wie
##anz
##iz
##og
##trag
##rü
ber
Sie
##elt
##me
##land
##läger
##ommen
##bt
##eine
##nis
mehr
ander
zwei
gegen
##we
##orm
aber
##acht
Unter
##ug
dar
Ma
Kläger
##dig
##fahr
##pt
##ffen
gew
re
##ess
4
##).
##fol
##ub
##eiten
##ohn
zw
##adt
##ick
##onder
##ud
##ust
##ken
##mt
Land
##ant
##ze
Zeit
##führ
dies
##ho
§
##etzt
Abs
weiter
##ap
##nah
##wa
##id
##dung
##ss
kön
##ech
##tern
##ic
5
##arb
##ha
Kon
##neh
##teil
##fall
Ent
eines
##ren
##lei
##mal
##zeit
##ob
##ßen
##ler
##fen
##utz
##stand
e
Ges
##ierte
##aten
##ieren
soll
lie
hin
##bur
199
##ak
Arb
hatte
Bei
wurden
##orden
##äch
seiner
Recht
##reich
haben
##mit
neu
##lage
man
kann
##.2
##itz
Es
Bet
##heit
##lan
##assen
##att
##ats
##bst
##glich
Um
##dem
##ok
kon
Mar
r
Deutsch
seine
Bund
##),
##hm
Al
##üt
gen
##luss
Se
So
##ße
##gem
##ktion
##vor
##klag
##spr
##ast
et
Her
##zi
##fe
##iger
##los
##br
##eigen
bes
Eur
wieder
##",
Ü
Ch
##ga
##schei
##ande
##ischer
##gesch
dieser
6
##ierung
##vers
##gan
ins
ges
bet
##ens
je
##ia
sowie
##stän
##01
##ften
Besch
##ammen
Fra
##schen
##od
##nung
habe
##sicht
wenn
##ahn
gem
Stadt
##ale
##igkeit
##lo
##ität
Grund
##rich
##rat
##schie
le
Am
##halten
##olit
Jahre
##halt
##sk
De
##amt
Bundes
##annt
Beklag
##öff
ger
##reis
##stellt
##inder
dam
##ard
##ov
##hör
##üd
##elbst
##unden
##lung
Über
##rieb
##for
zwischen
Zu
##burg
##erk
Ste
seit
##ließ
##net
Jahren
##usammen
##eist
##per
##alen
Gem
##ow
##gung
##hä
Fl
##walt
##eld
Fran
##sel
##aupt
diese
##grün
##omm
jed
erst
##tete
##zeich
ange
Reg
##ember
##fer
##zent
##änder
##qu
7
deutsch
waren
##ark
##geben
##inn
##eg
##rech
17
##stehen
Gesch
##rö
##gericht
##eister
##weise
gro
her
##icher
##recht
##bau
Sta
Wir
Ro
##tem
##tschaft
15
##ium
##berg
##.1
##ingen
##iet
198
ausge
##uer
keine
##leich
dann
worden
Ger
Ko
##rupp
##einen
##oren
##setz
drei
##ieder
##ay
bef
ihre
##eter
##eim
##satz
##äter
##glie
##fü
##iss
Br
##haus
##halb
##bl
##hö
8
##pl
##hne
##imm
##ater
##grund
##äß
hier
##ks
##nehmen
zurück
##gend
##ett
bek
##ibt
##ont
##ähl
##steht
##wir
kl
Berlin
ihn
Teil
können
Gemein
##zie
197
##hem
##ekt
##ußer
##St
##spiel
##amen
Welt
Geb
##üs
##eb
##nte
##igt
##min
##ild
##du
##pr
eigen
##gte
##ionen
16
jedoch
wo
##igung
##000
Da
gesch
Rechts
##mann
Art
##ma
##egen
##gs
##öglich
##öl
##issen
##nahme
##iele
##ielt
##äft
etwa
Stra
9
schon
##ende
##licher
##amm
##pro
##anden
##ding
##ienst
##ke
Sa
##ian
##fahren
##war
bereits
##if
##tre
##reit
ersten
selbst
führ
Or
beim
##io
ihm
Bau
beg
fol
##kte
##zeu
best
##achen
##llen
##räs
196
diesem
La
seinen
##kehr
##essen
##ährend
194
Spiel
##bes
##ierten
Klägerin
##hol
12
ihrer
##wick
seinem
##falls
Kl
Men
##licht
##ister
Q
10
##form
##wä
##öffent
besch
##1.
Leben
gel
##isten
##zt
Pl
Auch
Deutschland
##esen
ob
14
##our
##als
##ive
##spruch
##ehen
##gegen
##zel
##deut
##mittel
##fte
Antrag
anderen
##eute
##abei
damit
##atur
##zw
##rift
##unkt
Aut
##ucht
13
##gang
##stellung
##lagen
##stra
Part
##ker
Für
##ikan
##ult
##ilm
##ogen
geb
viel
##gleich
##hält
(1
Ort
##ald
##wend
Hö
später
Pf
wen
##forder
##iden
kom
##ym
##ander
1.
##amil
einge
##hin
##fä
##ichte
Als
gibt
Mus
erk
dort
Bes
erfol
##asser
de
##richt
195
##cken
##zahl
Ho
##ivers
##erson
##ition
Kar
Haupt
gleich
Le
Vers
eben
##ph
Mill
Eine
Euro
##agen
##aum
Urt
immer
##auer
##kommen
##.0
Ende
##ine
##orf
Ne
Mon
##ache
##ober
##lauf
193
ohne
Hin
##ank
verb
Kir
##unter
##undert
##ire
Bl
Arbeit
##".
Frau
##ritt
##ös
##gangen
##ce
Gro
##olog
fest
##iff
##ondern
##aut
##enden
fin
Qu
US
was
##ate
Min
##änger
##.201
##anu
sondern
liegt
##hof
##hand
##ätz
##schaften
Mitglie
##olitik
Arbeits
ar
müs
Ober
##ule
Mann
Mün
weil
##ade
Pol
##gri
##fl
alle
##stellen
##sta
Gen
verl
Frank
##scheidung
##cke
##rin
##uni
##yst
##genden
recht
Fall
##bei
##zial
##ange
##rad
##ohl
All
aller
Diese
##assung
##lau
kein
Süd
Jo
##röß
Te
##äng
pro
##ational
##hil
Haus
##ram
Verb
Fol
##itt
Dar
wegen
##age
Prozent
wel
##ärz
##ere
##gaben
El
##dr
Bo
##wert
zusammen
##reu
##ellen
Grün
##für
##gar
vier
##igten
hät
##mus
##führt
##sto
ihren
Wei
##ächst
##schieden
##ans
##hundert
##fang
##ständ
Verein
##gehen
Par
Rück
Beklagten
ä
##agt
nah
##sche
##erin
Ä
Kinder
Univers
##legen
Aug
##zug
Von
Europ
Menschen
##ationen
##lossen
##anuar
##oten
muss
##ron
##äm
##uft
konnte
Beklagte
Person
##uli
##ürger
##äu
##äd
##ystem
Ö
Neu
Mo
Fin
Ha
##meister
##räsiden
##rum
Gemeinde
##..
Satz
##fra
##gew
Fahr
##ruck
##ktober
Ex
##omp
sol
##uten
##ider
nun
Y
Famil
Durch
##kten
ersch
al
sehr
##stadt
zun
teil
##old
kam
Man
Beruf
##eite
##von
##rist
0
##zember
of
wür
##tember
##kl
##/1
heute
erste
Juni
Dies
##ehl
##ptember
30
Co
darauf
##urz
For
##enz
##bet
##ließlich
##ball
Zwei
##rag
##wohn
##heim
##dings
##punkt
##elle
##rot
Regel
##weis
Fest
Film
##lär
##akt
beiden
Landes
ich
##äre
##Ver
##rechen
##GB
größ
##.000
##ruppe
frü
##ünf
##na
dessen
Gegen
##ite
Urteil
##asse
##kon
##ko
192
Nord
Unternehmen
##res
Frei
##ute
Chr
25
während
seien
##eh
##raum
##tag
Mai
Januar
##reichen
gehör
##ellschaft
August
##...
letz
allem
##rach
##agte
##tei
deren
##iere
##ovember
##eiß
##itzen
##legt
##rieben
Oktober
##pril
§1
##ison
##waltungs
gef
Höhe
##ott
##werk
März
##heits
Juli
##vgl
Seit
The
neue
Inter
Kam
##besch
Schul
aufge
##rem
##yp
##itel
##gabe
##schutz
statt
##gemein
Nr
woll
##sst
##ond
##weit
##ele
##az
Komm
Sen
Jahrhundert
##treten
##sprech
September
II
##.200
##ondere
##ennt
##nahmen
##bung
##ried
sagte
##ost
Amt
##unde
##verb
##fin
##ubl
##schluss
Dezember
##eins
Krie
abge
will
neuen
##eid
##ys
##mals
Stud
##ac
vers
##zer
Betrieb
##hältnis
Zusammen
Gericht
Wohn
Dienst
11
##genommen
##kauf
Gra
Leist
##schn
dah
gab
steht
##mäß
denen
##aden
gest
Mal
##griff
Wer
##keiten
##rom
verw
##ip
Kosten
##bil
Wie
##änd
##wohl
##cher
en
Partei
##alien
##ennen
November
Th
##raft
##eint
dieses
191
##önig
April
##jahr
##echt
Ant
##bahn
Rei
##ordnung
2012
##annten
dabei
##annte
2010
Son
weitere
jewei
ganz
Vol
Ju
##so
c
fünf
voll
##ebru
##ebruar
andere
Und
Mitglied
##yn
zunächst
mus
Platz
Me
##man
Hand
##zogen
##iven
##dern
##ina
##erikan
Groß
Med
bzw
##wiesen
##unst
##gten
##eln
diesen
deutschen
##geber
Wirtschaft
##ünst
##urteil
2013
##rän
##minister
hö
außer
Sach
22
24
2011
2009
##issenschaft
2014
##bach
gewesen
##Sch
geht
Fuß
Wasser
Wahl
##läss
##ions
##ultur
##öt
##gesetzt
##stein
##reg
frei
Entscheidung
Zahl
##gesetz
lei
##hielt
##nehmer
##jähr
befin
##riv
Tag
Gew
##fern
spiel
verm
##eitung
dazu
Buch
Lebens
2008
##bert
##hung
##ame
Dem
We
##immt
##enk
Li
##org
ho
##stalt
##andelt
Ur
##zeichnet
##innen
##fur
##del
##ai
##ckt
Ob
##")
##stre
offen
Mittel
##öst
##gebiet
davon
##mar
Hoch
ben
Woch
##ählt
ihrem
sagt
##angen
##fach
möglich
Februar
##sy
##iga
ex
EU
kommt
Gesetz
Tra
##tragen
müssen
Form
Staats
##ations
##gestellt
viele
##setzung
Saison
Millionen
König
##eren
##andel
##gründet
##ial
lang
verschieden
##feld
%
23
Verwaltungs
Schw
2015
Rah
##eigt
ebenfalls
##ismus
zahl
##anach
Ind
##ou
##ütz
##iner
Bürger
##sol
##gerichts
##ilt
Politik
##besondere
##dete
##voll
##nten
("
München
bekannt
bel
hatten
rund
gut
##els
##ganis
Einzel
##rüf
##olf
2007
##ungsver
Rahmen
##jekt
Ka
##ehmen
Musik
##steller
##üb
##reiben
##kung
##ret
##krie
Lie
allerdings
Poliz
##stück
##achten
##schrift
sollte
wicht
##igte
##lichkeit
Bar
##führung
##örder
hä
##asst
##sver
At
Intern
Nieder
##rägt
kommen
Bay
Kap
Sicher
Fern
Denn
lä
##ritten
##sterreich
öffent
Geschäft
ehem
##ruppen
##gesamt
doch
Werk
##digung
##ichtet
Maß
nie
##zess
Lin
wäre
##stit
##rauch
##alb
##unft
##wahl
##schule
Klage
##alter
##straße
##af
Universität
Beschluss
##schied
##up
erhielt
##chn
##ib
##ichten
##räsident
Fre
##orn
##was
##zös
##ehn
sech
##steuer
gelten
##einander
2006
##esse
##ktur
##wort
zwar
##rigen
##inde
##arbeiter
##lam
Bahn
##ore
##gebnis
Ol
##av
gilt
28
(*
##stens
schwer
werde
stehen
##sichtlich
##ieg
##leist
26
Flug
also
##pflicht
get
lassen
##häng
besonder
##irekt
Produ
Namen
##ölker
form
2.
##opp
Gl
##roffen
gegenüber
##hört
blei
27
##vis
##nete
##ramm
Eigen
##unktion
##gie
Sport
Zw
ehemal
##äl
Jahres
##kunft
##,5
aufgrund
Ich
##ack
Ihr
##racht
Ange
weiteren
##kreis
FA
Doch
##alten
Lehr
##hein
Kran
Sin
Frage
##/0
Neben
seines
Bel
Christ
##ika
##ient
groß
##utter
##loss
Richt
##stimm
Kirche
##standen
Deutschen
Car
Em
Eis
##istor
Kunst
Frankfur
anderem
Reich
##echsel
Bereich
##ator
2016
##amp
großen
##hel
##ußen
erg
Erst
##schnitt
##schul
##erst
süd
Ser
Ad
neben
##chte
##haft
##lex
Verl
##inger
Hier
##räge
Streit
##äude
##weg
Weiter
##ierungs
##schein
##ris
Fried
Schl
##frei
##ilit
Kont
Vertrag
##eile
Finanz
polit
##iker
2005
##ätzlich
##ek
Erfol
##bild
##stag
##fahrens
einmal
##ula
##iell
dafür
Geld
##heiten
##assungs
##achte
begann
Ham
arbei
##ogra
##ätig
inner
##ublik
bisher
akt
einz
Bur
##ständig
##ins
Gener
##red
##urop
##handlung
##werb
##aß
Tod
##endet
Familie
##fs
machen
schw
##ue
##Die
##osten
Lei
##hann
Sohn
##plan
Stand
##ände
besteht
##laub
##sprechen
##99
denn
##ufen
New
##rotz
hätte
##inter
tra
##ity
##stellte
##eig
##iter
War
##lungen
##fert
##ons
##je
##gende
Fußball
##dent
##blem
##piel
Di
letzten
##ommer
##zü
##cker
Kur
Dam
insbesondere
##ranzös
29
gemäß
etwas
Titel
Bild
kurz
weit
##ücksicht
##wirtschaft
##isk
##wicklung
Rom
##An
##ließen
##zir
Anfang
##gr
Prof
Is
##eder
##lät
gehört
##isches
große
Dabei
unbe
##bereich
Gel
##weisen
##werde
##llt
##ologie
##iges
ging
##druck
jetzt
früher
Hil
##zept
Zent
He
deut
keinen
gemeins
##unk
ur
Wider
##hei
deshalb
Aber
##ums
##atsäch
##arten
##affen
veröffent
##achsen
##wohner
Bas
##onst
erz
erhalten
##wand
Frauen
##völker
West
jeweils
X
dür
Sk
##ide
würde
##kün
Ter
##schließ
vorlie
Polizei
zweiten
190
2004
Region
daher
##fäh
##ffiz
Anspruch
bean
Beg
##ral
##ct
National
sollen
##co
Gesamt
Johann
##wor
##renz
FAZ
##such
##fassung
eigenen
bil
##ymp
befindet
##inen
Klägers
##unt
sechs
Während
heiß
##lang
Jugend
##bildung
Akt
Tur
heraus
##stelle
Schwei
##one
##teilung
Steuer
könnte
##In
entwick
19.
##schlag
##eitet
##wendung
##nahm
französ
##ters
Bis
##üss
Herr
Band
##platz
einige
Geschäfts
zehn
##sitzen
Uhr
Mehr
##umen
Verm
##zeug
##ilom
##heb
##hang
##ppen
##prä
##scheiden
sel
fast
##stitut
ch
##iver
Sinne
fehl
##utt
##indung
##akte
erforder
Selbst
hinaus
nahm
##arr
##3,
##oph
welche
##orgen
##oss
intern
##bend
erne
##geg
deutsche
##änge
##flä
Geschichte
##nell
Ergebnis
hinter
nichts
##ission
##lungs
(2
Erk
heißt
Was
##van
insgesamt
##örper
gerade
Ins
##ies
lässt
versch
##0,
bestehen
##ven
##dar
gewann
##bel
##reffen
##mäßig
,
te
Fach
##hle
hätten
Met
##par
##gangenen
grund
Schutz
##buch
stark
##mitt
Plan
Zur
Dort
Personen
Autor
bede
ne
##neten
Pat
##reiche
Kultur
ihnen
##1,
erstmals
##haupt
Phil
##des
##2,
führt
##dienst
##iels
Hol
mehrere
Seine
##äten
Folge
##19
blie
##ift
Bil
##are
##iat
##mehr
##onnen
##xt
##ätigkeit
vorge
##ital
Den
the
Bevölker
Them
Sozial
##reicht
##gelt
la
beh
##ius
##gesehen
##glichen
uns
##fel
Ph
Bü
##ändern
Heim
Lu
tatsäch
or
gegeben
Mich
##ffe
Wenn
##alität
Schrift
##kam
##sehen
Luft
for
u
gemacht
könne
Män
allen
##wG
Wochen
##ings
##PD
Ta
Ru
##scheid
3.
Markt
Verkehr
Gut
Berg
Ra
##uren
umf
##arbeit
Ren
##osition
##gramm
##ode
Natur
##chten
##ationalen
Will
Zum
Sein
##vin
Char
stud
San
Mitarbeiter
Regierung
##unkte
##ienen
##ächt
189
##hoben
##echn
Ost
##50
Alb
Ziel
##ämpf
##baren
Voraus
musste
errich
##alle
100
klein
deutlich
##setzungen
##esent
Mitte
oft
##hnt
##sprün
##ochter
##kur
##rüfung
Gesellschaft
##5,
Weg
50
Rn
##bo
##geschlossen
##welt
Kat
##riften
spielte
20.
el
ö
lange
##nal
##lass
Einsatz
Fä
##port
##opf
jeden
setz
entsprechen
##immen
##atten
##vent
wenig
##deten
##ka
Sommer
allein
sogar
2017
Au
Stre
führte
##diglich
Tor
Flü
##4,
Gebiet
Mot
Alt
##of
Arch
Sitz
Vater
##km
schließlich
Des
einzel
##tert
Weltkrie
##dorf
Volks
finden
Bedeut
macht
jur
Beschwerde
lediglich
##ichter
##teten
##stru
18.
Beispiel
Rad
Nicht
Staat
##amten
##da
Fir
##son
##geord
ern
Verfahren
##wehr
Wieder
Zeitpunkt
##enntnis
solche
sehen
##ilometer
##richtung
##halts
Mutter
##läuf
2000
##räger
##GH
##ipp
br
##sport
Wert
Don
##liches
Dieser
187
##30
##wig
##kir
##antwort
##ativ
Kreis
##obil
##gef
Su
##aul
Tr
handelt
wohl
wechsel
188
##solv
Beteil
Team
##wür
Außer
Voll
##arm
##ve
##ühl
##hren
Ehe
üb
Amts
##mb
##obei
##äischen
##ument
##ied
##zieh
##8,
angeb
Meister
Wien
##führer
##omit
Bedeutung
##6,
stand
amerikan
innerhalb
Möglich
##ry
Ben
##reuz
€
Zug
##ock
Sal
##th
Peter
15.
##ögen
Je
Mag
##lärt
##gründung
weniger
Spr
##nach
Erfolg
##ersön
bezeichnet
2003
##ice
##legung
##nungs
Seite
##uchte
Wil
##oder
##zeitig
##hinder
##aar
##zip
##aler
Mont
##hard
§2
##Un
##ünd
##Pro
alles
##ären
##istischen
(§
##alis
1,
gehörte
##lager
wollen
mei
##ief
##oweit
##utzt
##reise
##scher
Kind
##fest
##abhäng
sicher
wobei
Kranken
(19
##gruppe
##burger
Friedrich
heut
Tochter
##tlich
Not
##schließend
Verfü
186
Meter
##ure
Straße
bestimm
##ose
##uchs
besonders
##anken
em
Familien
entgegen
##laden
##vest
##lärung
##iar
trat
##ilitär
Krit
It
##ase
##7,
damals
Zust
Problem
##ote
##digt
hoch
formula
Angaben
erfolg
##stellten
erreich
Rep
deutscher
##stände
zus
2002
Amer
##rop
21
##ieten
##anten
##duz
##les
Kn
##ifiz
##frist
fand
Gebäude
##fassungs
Straßen
##ikt
zeigt
##lassen
##ork
##uchen
##etzung
##itu
Mannschaft
##stellungen
4.
&
##int
11.
##staat
##iser
##ustrie
##äum
##FH
16.
Nutz
17.
Europa
wahr
##verhältnis
Minister
##ents
genannt
##renze
näch
mö
tätig
verst
##.,
Hinter
##will
Inform
##teilt
würden
##maß
USA
zudem
Bevölkerung
Lauf
##tritt
40
not
##ath
Komp
##sbe
##rik
##herr
##schriften
Entwicklung
zuvor
##.)
Dorf
Senat
##ünstler
Gruppe
qu
##eiger
vergangenen
Stein
regel
Bayern
Per
##reibt
fort
ind
##laus
gesetz
Beit
gar
##sät
arbeitete
##scht
zeit
##schw
##amerikan
Seiten
acht
##9,
grunds
##schuss
##sprechend
##ets
Betriebs
findet
##vertrag
Bezug
##pen
##zus
Folgen
Gleich
Kom
##ücke
##VG
##izin
##dre
stellt
##ehm
##rug
##zern
##aat
##adem
inter
##gehend
##eils
grün
Rolle
##ungsan
danach
##osit
leben
Bank
Raum
##ürk
Zwischen
unterschied
##sych
##folge
Hein
Damit
##icherung
genommen
14.
##mbH
##möglich
Eltern
##pflich
Olymp
##leben
Staaten
##use
##ller
Berliner
##keits
##SG
##ichts
##20
Frankreich
ursprün
2001
Kor
trotz
##bte
auszu
liegen
##etten
Führ
äl
Beginn
13.
##blick
##itter
Krieg
##euer
BVer
##ettbe
##bare
Sü
##reifen
##stands
Cl
schnell
höher
jeder
##sprechung
12.
Rhein
##adurch
Außerdem
##omin
brit
Jahrhunderts
geboren
##Bl
blieb
##ungsbe
##anischen
##stoff
Tran
besser
##ksam
Bru
##tt
Herz
erfolgte
##pfer
##liga
##verkehr
##fallen
##ts
##uen
verfü
##zeichnung
##kel
sieht
##ax
studierte
Einwohner
##ergie
##räsent
##oc
##derung
Antrags
##sam
wirtschaft
Stell
ließ
Österreich
west
##ael
wollte
Schiff
##schließlich
Tour
##verfahren
##seh
21.
##ette
Kirchen
Che
Nachdem
Bra
entstanden
##linie
##weck
##uter
Rat
##auspiel
Dr
darüber
Hel
##ana
General
##tler
Wort
unser
Zeu
häuf
reg
Fort
##orge
##hausen
nahe
Pap
Zeitung
##attung
##allen
##ull
nieder
bed
##schung
##arif
Kilometer
##bringen
##isse
vielen
konnten
1990
##gra
##ix
##18
##kosten
##ammlung
Gerichts
##fluss
Techn
##ennung
bevor
wei
mal
##anwalt
##eier
##örd
##ühren
Berufung
##ournal
##II
##stütz
ihres
##wagen
meist
Daten
##zig
##spiels
##andels
##geld
Tat
##rand
Revis
10.
Mark
Köl
##yr
höch
Franz
Liter
geworden
daß
##wasser
juris
##rivat
and
alten
##helm
Sol
sieben
##tens
John
31.
Kommun
Frü
##ziehen
Kraft
Schm
##ingt
verein
Hei
##fort
sowohl
Zusammenhang
einfach
Tätigkeit
staat
Süddeut
##schafts
Vier
5.
##ign
verschiedenen
sogen
30.
##gebot
verkauf
meisten
Besitz
##fr
##napp
Antragstell
##Jahr
##hörde
Bi
##dert
##eller
##kungen
Mart
Red
##west
##ützt
##wech
Frankfurt
##nungen
Sam
##ders
##länd
Aust
##olle
Wirtschafts
##drück
System
Res
hervor
erneut
##anstalt
##wärt
##reten
##kret
berücksicht
##hilfe
##markt
##wur
##vol
Vort
Schauspiel
##stät
##tragt
Sonn
##hnen
eigene
##iken
##ktionen
folgenden
Dan
##urs
Gott
Ak
Insel
##loster
##orgung
##zwischen
Grundstück
##ützen
##endete
Rechtsprechung
##ungsk
##llig
##atür
Thom
Et
Preis
##ino
Funktion
Mode
##ca
##essor
gek
##gegner
gehen
##ändert
##ritte
Alter
##ches
FC
##/2
##aren
##udem
6.
beteil
Gef
folgt
##gewiesen
##laufen
BGB
gemeinsam
Zweiten
Danach
Innen
184
1999
Prozess
ähn
##verband
Lage
europ
Landkreis
Karl
##ollar
##regierung
##stieg
zie
##ondon
führen
##ändig
kaum
gegründet
Verhältnis
##waltung
Än
##nehm
##undes
Anlage
Italien
##letzt
Weise
##gesellschaft
Tage
##ative
##andid
Gast
Port
Kün
##urm
##ftig
##ständigen
Hamburg
##rolle
Zudem
Sil
Burg
finanz
gehören
##elte
7.
##ziehung
##10
erf
Deutsche
##die
Präsident
Mü
GmbH
##spieler
abzu
##lässig
Milliar
geben
##itäten
Begriff
##len
Winter
##PO
Hans
wichtig
##okrat
Engl
##iums
##sprü
sollten
Fot
##sie
##ivil
##ille
Drei
##under
##reiten
kün
##ült
Provin
zweite
Schü
verbunden
Norden
##schau
8.
##alk
##fft
##pon
Außen
genau
Wolf
teilweise
verwendet
9.
##DR
verpflich
##anzen
##ors
##ligen
Muse
geltend
##immer
London
##fahrt
##emen
##orp
##gn
Dass
star
##schlä
York
##stimmung
Paris
gelegen
gewählt
entscheiden
§3
Erz
##rats
##last
##fG
##sitz
##räsidenten
##othe
ebenso
Kriegs
zuletzt
Verfügung
EUR
Michael
##räum
##zuf
SPD
wechselte
Schwe
##utet
Kan
##ias
Wald
ober
Voraussetzungen
nörd
Leistungen
eröff
Ba
##uk
Ele
##akter
Sonntag
##itze
kleinen
##ieß
Parteien
##spielsweise
##fter
erwar
Russ
per
Verfahrens
##ling
##part
##isiert
Halb
Flücht
##bracht
gestellt
Sc
##rechts
##DU
Fehl
Viel
##gemeinen
machte
Boden
##itten
entstand
erklärt
##system
Heimat
ergibt
Versicher
##15
##han
Eisen
##ürz
end
##atte
Bern
Kampf
##entscheidung
Bescheid
Go
insoweit
Thomas
spe
eher
##zirk
##onn
Stelle
Ed
##barkeit
darf
##met
##arbeiten
Bek
Park
##fehl
##istische
könnten
stellte
Rund
##elig
##rieden
Klein
sonst
##üsse
Pal
Wahr
##akteur
rechts
##forderungen
Schn
##AG
unmittel
22.
Kauf
##ain
##rig
##eicht
##orie
Du
Begründung
##ücken
Vergleich
##wegen
SGB
##ager
##iko
Hä
##ars
Paul
Heil
Regelung
##unge
übernahm
##betrieb
Merk
25.
Eben
##prochen
Flä
##zehn
Richtung
nachdem
Hof
##ausch
##radition
1945
##berger
bleibt
##haben
bleiben
BFH
##ement
grundsätzlich
Wor
erheb
öffentlichen
##ationale
##handen
erfü
derzeit
##ep
histor
Milliarden
Erd
Spieler
Medien
##user
eingesetzt
##treter
##uth
##ischof
schle
##itzt
Kü
Stunden
zuf
ehemaligen
##ja
verd
Schule
brach
weder
erreicht
##ance
Fil
Zul
Konzept
Stat
hei
##öhn
Jose
erreichte
##geln
bew
##inner
##ettbewerb
##frage
See
Union
##80
nord
##uellen
##60
Main
##ganisation
##folger
##öm
##rang
persön
Antragsgegner
##ari
vert
notwend
##.12
lin
##onen
entspr
Osten
##bescheid
Internet
##gelegt
verz
Nä
##richten
##schl
60
##ikation
Wa
##schließen
##hebung
##setzt
Thema
Untersuch
lag
Hilfe
##usst
ir
##gebaut
##amte
Fr
##haltung
beru
Süden
darunter
Har
##wart
Möglichkeit
dagegen
##zustellen
Westen
##ex
Mitglieder
Sachver
Gu
Stu
##see
gelang
##bruch
##deck
28.
Ern
damal
185
##geführt
##ong
##Der
gewähr
größten
Wilhelm
arb
23.
2018
trägt
##igkeiten
Kammer
Prin
##fläche
Vorsitzen
##woch
##renzen
Vert
weiß
Rot
mich
ja
Energie
Dre
1998
##ummer
##verein
Männer
##igungs
##östlich
Alex
Grundlage
##geschichte
wesent
tatsächlich
##liegen
jün
Schreiben
##arch
beide
##krä
##darf
##li
Auffassung
##gliche
Gold
Ihre
Interesse
##iffer
Besuch
##wissenschaft
##inden
##ossen
##ski
##-,
kleine
Blick
##12
##asste
Anwendung
##sb
Körper
24.
...
erfolgreich
26.
richt
##lege
##ole
##lern
beschäft
##yt
##zeuge
hält
##test
Kreuz
bestät
##setzen
##indest
##kom
##seite
Institut
Fer
neun
Comp
##rechtlichen
Nachbar
gez
##italien
häufig
##ommun
-,
knapp
Kloster
##yer
Vertei
##The
mittler
##ösung
Arbeitnehmer
##ständige
##sburg
##preis
##athol
somit
##wald
##gangs
maß
##ham
27.
Aller
erschien
##stanz
einigen
Ass
Karr
beispielsweise
Bad
##rakt
##nisse
Aufent
##steil
Dis
nächsten
ung
##ietet
Städ
Antragsteller
##anc
Tem
##wertung
Theater
weiterhin
Liste
Ermitt
stellen
Zeitraum
##etter
Üb
dadurch
##ürt
##oge
##gelassen
##unkten
##bten
außerdem
errichtet
Produktion
Monate
Maßnahmen
##üter
35
Entscheid
Parlam
Auftrag
Ku
##spruchs
##13
vorhanden
##äte
##omen
##aff
Studien
##mitteln
alte
##ituation
zog
Asy
russ
##jährigen
Archite
Lud
##spart
##off
Verkehrs
Privat
Arbeitgeber
##dingungen
Spe
29.
Ide
Gesund
daran
Pass
##rochen
##mel
minde
##hörden
bestand
Schaden
##chter
##ienten
##40
einst
mindestens
anges
##ograf
genannten
entfern
##ört
Abschluss
Journal
Nur
dahin
Po
##estag
##Er
##raten
Bran
ra
##gemessen
Beschäft
##apan
Frankfurter
##ierenden
Freund
Schwer
priv
Sh
Mor
erwä
zahlreiche
##stat
Tri
##mee
##langen
##kraft
kamen
##okal
1980
Gründen
(18
angef
Con
##wesen
##gut
1970
Sold
##vert
##bank
Wissenschaft
Invest
Tagen
##pe
veröffentlicht
gleichen
Sicherheits
Name
Holz
Kopf
mein
Weltkrieg
Heinrich
Brü
##zentr
Auto
nehmen
##griffen
##17
natür
einger
Nacht
Angriff
Feld
##wid
welt
Woche
Zukunft
##änz
##warz
Ged
Vereinigten
Roman
länger
##ica
##ese
##altet
Post
erhö
##ama
Karriere
pl
##andeln
##ses
##ograph
gl
##ichtete
##kirche
On
##oppel
##leger
Druck
##abel
klar
##ochten
Netz
University
Mat
##angs
##iegel
setzte
End
verschiedene
Feuer
starb
Jur
##ymn
Provinz
##rim
gep
##nommen
offiz
##schiff
direkt
Köln
##irektor
##hafen
veröffentlich
##eien
##streck
jedenfalls
Georg
##rise
##reichend
Länder
##ämlich
jen
Tele
Revision
Album
erster
##iete
Pre
Max
##iam
Hann
##spiele
Schüler
Literatur
Projekt
1997
Dieses
Mein
wider
heutigen
anders
Sonder
2,
##.10
##zun
##dien
##iellen
aufgenommen
voraus
[
Nor
##lieben
beantragt
##mitglie
##ängen
krit
##chner
##ox
kur
Verbindung
1996
##linge
##omat
##leistung
##rief
geh
##arbeitet
AG
Monaten
ant
Straf
erklär
fl
empf
##aup
##uche
##amens
moder
##eiden
##produ
Basis
##med
oben
##gent
nämlich
Fernseh
Schloss
letzte
bem
geschlossen
Eigent
##sh
##okument
Allerdings
Kurz
##aktion
schrieb
Do
Bro
hohen
##vangel
##politik
Nähe
erhoben
Kol
mir
##sätze
Auss
##ösen
##gemeinde
Sicherheit
##lären
Trainer
Gesprä
##tels
Gar
ca
##rid
##film
entsprechend
##yd
##reisen
Tal
begründet
Kant
##mannschaft
##pel
##ativen
erw
französischen
##roffenen
Regierungs
##scheinlich
##rifft
laut
müsse
##ruf
Aufgaben
Mos
##uelle
Haft
bau
##zeiten
Bus
##zentrum
erfolgt
unver
##utzen
##vier
##wiegend
techn
##lig
pol
äußer
Süddeutsche
##anien
Dach
##iten
mehreren
halten
Künstler
##ängt
verurteil
engl
Ludwig
spielt
Sache
##asen
##Be
Leistung
##jährige
gefunden
Militär
##etzen
##get
Kunden
##ara
##ime
##halte
Bürgermeister
italien
Prä
Augen
32
Angeklag
1994
##di
##gress
Professor
anzu
##16
##rimin
spricht
##over
ro
Unterstütz
##ment
##lätze
##Ar
##wo
##deckt
Pla
leicht
§4
##zur
fä
Ris
Ausbildung
Firma
##haber
##wechsel
##jet
Bahnhof
geeig
Stellung
##uhr
alt
Text
##denk
genutzt
Häl
Öff
setzt
schl
Mitt
##ruktur
Robert
zumindest
Dann
solchen
hinsichtlich
Beim
##zugs
##.3
180
Kaiser
absolv
Sicht
##geladen
##wurf
erziel
1960
##wegung
Leiter
##ines
konk
##ivid
ste
Martin
Tre
##innt
1995
Gebur
##denburg
##eichen
Tier
geführt
vertreten
##yl
Dollar
##onat
III
Mil
regelmäßig
folgte
##ymnas
bestimmt
einzelnen
##ählen
dritten
##.11
##line
politischen
selten
Zus
Hälfte
##onds
##uell
##dner
Baum
Bereits
überhaupt
Andre
##amer
Pa
angefochten
wissenschaft
Verhalten
##ierungen
Denk
Graf
gesp
Förder
amerikanischen
##Aus
##hte
Leistungs
##.-
##zunehmen
inzwischen
Studium
##ppe
verloren
##ammt
Lö
sofort
##ikel
##verl
##kan
Christian
##iew
##isierung
Os
besten
##säch
##üm
##StG
Interessen
erm
##kampf
##ror
##schungs
eng
##lauben
DDR
Gemeinden
Bor
183
##osoph
Wo
unmittelbar
darin
unterst
##unn
##/9
stär
Gestalt
1992
berichtet
Kolle
jeweiligen
##25
verlie
befinden
nimmt
##fähigkeit
##erseits
##rax
ZPO
Tages
##reitag
Chef
##ision
Russland
Pfarr
##zul
##sprüche
Einkommen
##ali
##ague
##nier
##weiter
Gruppen
Bundestag
Kern
Schweiz
Schweizer
bedeuten
##ließt
Umwelt
##heira
##14
gekommen
##Sp
33
Handels
Zwar
Alle
##stoß
##ament
##sprach
##gänger
##ution
Gi
Deb
Zweck
Ap
Übrigen
tragen
Minuten
vorgesehen
keiner
Af
##länder
##eth
##handlungen
##legten
Personal
Zuge
##echnet
zug
##roll
Beweis
Vertra
Programm
Miss
zeigen
Bruder
##ward
##ffer
##alz
##güt
Schon
verk
Wirkung
##leg
Stutt
##fan
##herap
##serv
##orben
verpflichtet
Reise
##lock
anderer
Norm
##ima
km
Sied
Air
##temberg
##inge
Politiker
Wind
Erm
Redakteur
##eten
##barung
##zeichen
zei
##Mit
enthalten
Bür
Vermögen
##werke
##zeugen
##park
##schinen
##oper
##ölf
##wen
tun
Umfang
##70
vergleich
erreichen
maßgeb
##üge
Ausland
Typ
par
Antragstellerin
##ozial
##versicherung
ausdrück
##örm
Inst
80
dürfen
##ise
bald
Asyl
österreich
Sieg
##ufe
##rächt
unabhäng
##unternehmen
70
##dacht
Oper
##erner
Mittwoch
##ona
Reihe
Beurteil
gebracht
Com
##klich
##rep
##werbe
##nt
ausschließlich
Elekt
##äher
##unsch
bin
##iens
größte
Lo
##ile
##seit
##kap
Einsch
CDU
##ielleicht
Hen
Unterstützung
##teile
ausgeführt
##streit
##ministerium
aufzu
norm
Nachfolger
1993
beste
elekt
##gement
Far
##ool
ursprünglich
kehr
##auern
##spekt
Vo
##iment
Weltmeister
##pft
Schä
Mer
Ott
##lingen
Betracht
enthält
Verhandlung
Ton
##techn
verhinder
##digungs
##75
Orts
##iegen
Stift
Ball
Fällen
älter
Leip
Wein
Start
Bot
##Jähr
##flug
##bin
Tats
1991
Früh
##kund
Europäischen
Industrie
##zin
jähr
Rich
zuge
Grö
Beteiligten
1950
Macht
§5
produz
##ielle
soweit
China
##zahlen
##rück
eigentlich
einzige
sozi
##istik
Montag
Count
##recher
##öpf
##ieter
anschließend
Motor
##ademie
##acher
##Ber
##werber
##frau
fiel
hohe
##uck
Freitag
##issenschaften
zerst
##anzler
##fon
##by
Tarif
01
##har
vorliegenden
lau
Mel
Fragen
bringen
vorher
verletzt
Brand
##ae
##auch
As
31
Aufgabe
internationalen
Ord
münd
##Stand
Unternehmens
Pres
Rang
Prüfung
organis
hinzu
0,
Les
##wjet
##gart
hal
##bürger
exist
##berecht
App
##wohnern
##züglich
entschieden
Soldaten
neuer
##ständen
Beigeladen
Strecke
##zut
##reibung
##achtet
erforderlich
##gebung
##losen
1989
zent
##bü
##Welt
##ada
##4.
besuchte
welches
Linie
Dazu
bislang
##jen
##atik
ak
##ots
##iente
##mut
Bestand
##aly
behaup
ehemalige
##üsseld
##"-
##aill
entwickelt
Gründe
bezeich
Disk
verf
Wegen
Lang
45
Fel
##ierter
land
##anlage
Sprache
Richter
Anschluss
##osen
Heraus
##ames
Abend
ergeben
Armee
##ümer
Dav
##strecke
erklärte
Bundesregierung
Liga
##eilen
früheren
##ffend
Imm
##wGO
Sachsen
Verkauf
streit
##spielen
##ährung
Aufl
##how
##arte
##2.
Grenze
##lehr
##SU
##win
##holt
Maria
##funk
##rank
Fluss
Super
Senats
##ollen
##erv
BVerwG
##dür
##ane
##wahr
##elten
GG
##ringt
Aktien
spielen
Ir
is
##lanzen
##langt
##wind
##gegeben
Teile
##richtungen
Landtag
Publik
##orte
Opfer
folgende
verfol
Kritik
##kra
##tegr
##riech
##Al
Baden
36
##alif
Berufs
Zin
##zy
##West
##ierende
##ktor
##führungen
gefähr
wenige
##hnung
##reiber
Düsseld
TV
##gelöst
Trotz
obwohl
##weile
Spielen
##olge
Abgeord
##raxis
Stamm
##leiter
Ul
Situation
Serie
##De
##rechte
Heute
Col
Hor
dro
Ist
##stellungs
Licht
Ersten
Reichs
sah
##stab
##mo
Schluss
VwGO
vollständig
gesamten
Kommission
##digte
##solvenz
Einfluss
##erischen
Vertreter
Bezeichnung
Arbeiten
angemessen
kompl
erkenn
umfasst
Är
##ränkt
##führten
##besser
##ücksichtigung
Fig
Hauptstadt
entfernt
##aterial
Dauer
politische
##struktur
Kab
##45
##rhein
Verband
##regel
Just
med
Ang
##denten
damaligen
begrün
Donner
##sa
##mund
##alifiz
##ielten
indem
##anger
##gült
##ildet
Spiele
WM
Bef
Tür
##3.
hingegen
Volk
Meer
Wohnung
##rige
offenbar
##gebäude
zwölf
##heiratet
Ländern
Gesetzes
Sing
Gr
##ley
##leistungen
Stück
##ton
entspricht
##1)
##rägen
##band
jede
gesamte
langen
##:2
##rags
##hlen
##jekte
##riff
##ausschuss
##statt
Gewinn
Gefahr
##ädchen
bietet
##dam
Landgericht
bestimmten
Dro
##90
Weil
Besonder
##dro
Sand
klass
Lager
##allel
##Se
Insolvenz
##redit
##ession
##ungsverfahren
##anspruch
##98
##gemeinschaft
Rede
selben
Rein
beteiligt
veröffentlichte
Informationen
posit
Arten
90
Sub
##ikal
Dreh
##utlich
##uchten
##öffentlich
Zentrum
Wettbewerb
stammt
##umm
Verlag
Mad
benannt
beträgt
Museum
##aille
gute
##dessen
##zirks
Test
veran
##orgungs
treffen
##schafter
Dres
Erfahr
##respon
vorläuf
##prüfung
##westen
zugleich
##ologischen
##gefähr
Bach
wiederum
britischen
##zif
##weist
erinn
##volution
gebe
Vide
Hintergrund
##kräfte
##reib
sagen
Viele
##uster
##reitet
arbeiten
Wal
Pop
##ola
Darüber
bekommen
Strom
bilden
erle
prom
erkennen
##macht
##inal
mittel
##nü
anerk
##ios
welcher
Ander
erwähnt
Japan
du
Noch
##ürttemberg
Partner
##diger
##förm
"(
Syn
gründete
##nam
Histor
Konkur
Anforderungen
##asil
Mc
letzt
34
schloss
stammen
Anteil
dürfte
ausger
##lassung
gebaut
Prem
Renten
Truppen
Del
Republik
##ertig
Hinblick
röm
Stuttgart
eröffnet
##gruppen
aktiv
##dungs
##istisch
Regen
stra
Stil
Punkt
##denken
##ständnis
##Ab
##3)
Angebot
bekannte
England
Münchner
##aters
Aufgrund
##weisung
##selben
##bli
Fa
##raucht
##achst
##rael
brachte
erschienen
##richter
##spro
##änden
Türk
Werke
betrieb
europäischen
##wendungen
di
##24
einzu
William
##ragen
gehalten
##wirkung
##:0
Öffent
##"),
##bestand
Ausnahme
rel
##abrik
Chem
##que
Donnerstag
Pri
Div
Verpflicht
##35
##ziger
##igungen
##dens
vö
Dom
Fen
##ählte
übernommen
##runde
##linik
38
Kenntnis
Olympischen
##imeter
vielmehr
Hal
Ep
Empf
BGH
##laubt
mussten
##rak
##.199
##ferenz
junge
gesetzlichen
Nachrichten
##staaten
Inhalt
##ehmigung
Pflicht
Offen
##finale
bisherigen
##ochen
Johannes
kont
Dienstag
Weitere
##gebracht
§§
##schech
League
##antrag
##itte
##own
##iller
##reite
Position
##rab
beginnt
Verordnung
##ügel
##mes
##derungen
Nun
Gesicht
##vorsitzen
Kapital
Nutzung
##arbeits
Ernst
zusätzlich
##flächen
##78
##mand
()
jedem
gleichzeitig
500
festgestellt
Behörden
##ash
##leitung
Beamten
SZ
##istenz
uner
##ufer
verantwort
##staur
typ
kathol
Bilder
entsprechenden
weiterer
##vo
##nern
vorzu
##DP
sozial
erfüllt
##2)
##äne
##tell
umfassen
zugrund
Doppel
Verantwort
##ordnungs
Bischof
Nation
##mittelt
sogenannten
##ome
Ehren
##gemäß
großer
Bundesver
SG
1988
##ils
##ena
öffentlich
##heben
##äische
##ish
##eis
##ike
Veranstalt
##Reg
Pe
##Mar
Forschungs
##lecht
zunehmen
legte
verlassen
Pil
näher
Gesundheits
##komm
bl
südlich
David
Wechsel
##pol
Organ
##Re
##ight
##ta
##ateg
##zeitung
##spe
##7.
##züge
späteren
zweit
Herbst
Sinn
##umb
##brit
sod
hielt
absolvierte
französische
Modell
##achung
außerhalb
Szen
spezie
##formen
zusätz
Klaus
§6
Jan
##kunden
kauf
##zwei
Gewalt
Star
Ansicht
##urg
Ortsteil
Annahme
Stellen
.
besitzt
Viz
##gemeine
FG
Antragsgegnerin
ganze
versucht
Umsatz
berücksichtigen
##republik
##ki
Psych
##fälle
##23
##immung
##11
##erweise
entwickelte
Ruhe
Kindern
Frieden
bedeutet
##legte
abgeschlossen
interess
##amb
##agd
Presse
befand
bildet
##gien
##zert
##mächt
000
##zahlung
##gton
zulässig
##lad
Pet
daraus
##azz
Flughafen
gesehen
Verbrauch
##anne
##riebe
##ftigen
stets
lebt
##auftrag
Vertrags
Sim
##cks
##aub
Gründung
##4)
Krankenhaus
##ischem
Zeiten
##ckey
aut
fal
BVerfG
rück
frühen
nördlich
Gesetzgeber
##renzt
jungen
Grie
zufolge
##plant
zahlen
Waffen
Alexander
Fläche
Top
Polen
##view
se
##schä
paar
##tur
##agn
##6.
wirklich
##fahrer
prakt
Behandlung
belie
Eisenbahn
##wander
##usch
Hannover
Hinweis
To
Qualität
##ail
##durch
##werte
Kandid
##ameister
Mädchen
Umstände
##kunde
##ival
##gner
genü
entsprechende
Punkte
##spl
##.2013
unge
Bö
Krank
Brit
##illa
eingesch
##abl
##Ein
haupt
##1-
##za
##geschäft
weg
reich
##gels
heira
Verwendung
##lose
fanden
##aust
##ährt
##sem
##spf
Vergüt
##bauten
beruht
Rechte
##respondent
##Kon
Entwick
ausdrücklich
##5.
##uern
sä
Änderung
Zeugen
prof
Alters
##ländischen
sach
Leitung
##6)
übrigen
durchgeführt
erhält
Falle
bereit
##va
folgen
Var
Wege
Berufungs
Präsidenten
Salz
##EG
Aufnahme
##stud
##präsident
##ffel
Saint
scheint
Schlacht
##falen
##7)
Zusammenarbeit
erscheint
Exper
1972
Auslegung
##.06
Stad
Gesell
übertragen
##ahnen
Leipzig
Düsseldorf
Lehrer
Zweifel
##ante
##ware
gewonnen
##bliothe
angenommen
beein
Kamer
geplan
endgült
##versorgung
überra
Gegensatz
##fried
Hoff
verkauft
Parlament
City
zugelassen
Königs
##mark
jüd
verheiratet
##häuser
##rechtliche
##pa
wissen
Tro
##kretär
Pflege
##Urt
Probleme
Organisation
reag
kehrte
Medizin
Anzahl
Später
##str
daraufhin
getroffen
arbeitet
Unfall
##rüfen
völlig
berufen
IV
##.07
##ernen
Deutschlands
##irn
##chester
##forderung
Anton
derart
##.2014
gegrün
verlä
##iversität
Schließlich
##altung
zuständig
##ktions
entstehen
allgemeinen
##abt
ernannt
##kont
bestimmte
Jetzt
Göt
##grenze
Philipp
##ymb
Gre
3,
##ymnasium
Gespräch
Herren
Vorschrift
neues
##gesetzes
beschäftigt
gra
Schlag
##wegs
schrift
##insel
##sein
County
Bör
Feststellung
Tim
##abil
##kord
überwiegend
Mensch
zivil
Bron
##vention
##ones
Bill
Führung
##ziehungs
##derte
allgemein
tradition
##ören
##sache
Monat
##alition
##üten
##britann
##sser
sprechen
sprach
##ene
##Vor
Trum
Viertel
##ake
Bücher
Leute
Laut
##anische
zugrunde
Prot
Einwohnern
zahlreichen
Glück
)
diente
##mens
Karls
fahr
1987
Hessen
sub
Insgesamt
##ffekt
##sprache
Silber
##go
vermutlich
##abend
Tex
Grenz
##cc
türk
natürlich
##laut
Exp
##gern
pass
individ
ausgeschlossen
verg
Det
##.03
vern
##sträger
##zeugt
Auswahl
Sänger
Banken
##mm
Carl
Studenten
Artikel
Fassung
betrach
##erei
1933
Rie
Arzt
Regelungen
griech
Samstag
##laubnis
Wagen
Spanien
##ala
Dah
mag
##28
##olden
##pfel
##kä
##wirkungen
##anlagen
bestätigt
##füll
qualifiz
Kündigung
##sä
Han
##famil
##änglich
##verfahrens
geschaffen
Länge
##geschoss
##rechtlich
##strahl
Gä
besondere
##SA
##änderung
Behörde
##Che
jedes
Fe
##echnung
Anlagen
Runde
älte
früh
ersetzt
Geburt
##.2012
Drit
Lü
Erkenntnis
##ith
Themen
Verwaltung
Großbritann
Soweit
verurteilt
Wesent
Holl
Champ
Stadtteil
Best
beschrieben
##programm
##lö
##38
##weich
##ologische
37
##bildungs
300
Anschließend
##stätte
##ouver
bele
gewinnen
hol
Konfl
Pr
Dist
weiteres
fehlt
##gin
##ickt
präsent
dient
Fahrzeug
Rud
Prüf
Urteils
##ßt
##ziplin
Richard
Rückkehr
##9.
##iefer
##.04
Mosk
Vorschriften
##stimmungen
poln
##kammer
##igkeits
Pflanzen
wenigen
vielleicht
Grab
##aur
Relig
angeboten
Bundesliga
1930
Bekannt
##peratur
##Bahn
Verfassungs
##Ge
##/8
##rechnung
Stimmen
weltweit
##halle
Darstellung
1984
Türkei
##hafte
##ries
beleg
##Wir
relativ
##aben
1978
##klärung
##trages
##lehen
Hart
Otto
##beit
##ärzt
betrieben
Vergangen
1986
Erwä
Gutachten
##zahlt
militär
##sächlich
##sichts
##tlichen
1985
Kre
##läub
##gehr
Gewerbe
Wehr
mittlerweile
Ress
International
Philosoph
Richtlinie
jüng
##alsozial
irgend
##örung
1920
##65
Club
##zum
##hnte
##gewöhn
##schauer
Veröffentlich
##ict
##teils
##ftige
mündlichen
Finale
schwier
verlor
##lichkeiten
Charakter
##adrat
rech
Beurteilung
##ld
##male
##üst
rei
##hington
##itzer
Matt
Vereins
richtig
##ical
ersichtlich
dauer
##andt
Deshalb
Grünen
##linien
Kirch
##32
1974
Wolfgang
1975
Struktur
##ini
Fo
Garten
##)"
Rest
anderes
##maßnahmen
ru
Train
##gründe
##schläge
Papst
##steiger
150
stieg
##einträcht
##gestalt
##reund
läng
ausgezeichnet
Sä
Pan
##unsten
Lou
Wall
Staatsanwalt
##aufnahme
Hit
heiratete
zurückge
zutre
##orfen
galt
##ksamkeit
Trans
##48
Beide
Trump
##itionen
##werden
##ätzung
##oment
Hu
1938
weist
##SV
Sprach
kennen
erzählt
##orgt
##itar
1968
Ke
##ney
##fred
##.09
Firmen
Gegenstand
Konzern
öffentliche
##stete
dur
Standard
##ikanischen
##zieht
##ular
Auft
##isierte
##--
Glas
##wissenschaften
Angel
hieß
Qualif
Turm
##itiat
Kron
solcher
Ausführungen
Blut
Colle
Win
##").
##way
amerikanische
##95
##punkte
##mot
##Ges
##9)
##itsch
schreibt
##ehrt
Kontakt
##bi
Fahrer
Müller
##hauses
Denkmal
Sem
Leit
kosten
fällt
##22
##baut
Reform
Str
##lehnt
##waff
##vertreten
Griechen
##dt
##worben
Rand
§8
##partem
weitgehend
wahrscheinlich
##far
Terror
Patienten
##sum
##geschrieben
##97
Joseph
res
stärker
##ause
Aktiv
Schön
Dat
Mess
möchte
zurückzu
##gungs
##.05
Inner
##reig
##tent
Bon
##fragen
herr
##iers
Rennen
Bezirks
angefochtenen
##äh
Versicherungs
##ämpfen
Ersatz
##fordert
##bs
##nei
Ach
Nik
##achtung
##hofs
##wärts
Allgemeinen
##kor
##fecht
Ehefrau
Schwarz
##.2011
##itur
Klasse
##gesprochen
##ikaner
Vorsitzender
##.02
Gas
lauf
unzu
##ester
##erien
begonnen
begl
vorbei
eindeut
##arzt
Autob
Herrschaft
at
Versorgung
##eind
Ausdruck
1940
angegeben
guten
Ca
Städte
##ago
##chmal
Tiere
Widerspruch
##ürn
Vergangenheit
##beg
##garten
Bem
benöt
##26
Regisse
Rock
Öl
Washington
##westlich
##arbeitung
##chem
Fehler
betreffen
Hochschule
Hotel
##zähl
Vom
Wiener
ausreichen
1982
Ros
international
Versorgungs
Zahlung
psych
##Württemberg
Direktor
##lers
Schauspieler
beruf
steuer
Öffentlichkeit
##führte
monat
1983
erzielte
Na
##cel
Bla
Schmid
funktion
Maschinen
##ano
eingestellt
tä
##irm
größer
zeigte
Einige
einf
durchschnitt
##ya
##höhe
men
mehrfach
1944
##fig
stell
unabhängig
geschrieben
BSG
Angeklagten
Arbeiter
Spitzen
##67
Termin
Zivil
ermöglich
##trem
##ördert
kommenden
erstre
##stu
Todes
Zustand
Merkel
##bus
Wel
##stattung
Brief
##tragung
1939
##odell
Lab
Obwohl
berücksichtigt
##verwaltung
Chor
##uert
bekam
Vollstreck
##hoch
Justiz
Großbritannien
Wür
##änn
##gänge
Gelände
ähnlich
##Weltmeister
zentr
##Stra
##RW
##indungen
verfügt
Fenster
Bericht
gericht
##istan
##Jährige
Beitrag
##zog
Verbr
zit
##ford
##holz
Zinsen
Gewicht
Erb
wichtige
Koalition
Kop
##ifferenz
##imal
##fil
Umgebung
##.).
##räume
##Universität
sogenannte
##üh
##.08
Stock
##atein
##ädt
1969
ausgeb
dritte
Ereig
Anordnung
hierzu
schön
Miet
##onach
angesehen
Sig
Moder
he
Beschl
Bauern
##fühl
##digen
##versammlung
Minde
##alog
1971
##hörigen
##eige
##Nr
Alten
##ranken
Pfer
trifft
Bebau
Standort
ernst
1973
##ktiv
angesichts
Dokument
1979
##fertigt
teilte
Zuf
größere
##err
##une
Franc
Hig
Dresden
##eton
##stritten
Renn
##54
##68
Wol
entdeckt
geeignet
##onie
##law
Hermann
Geheim
Größe
festge
wichtigsten
George
##sweise
##endung
Rö
Metho
1976
Leg
##afft
##swahl
##fähig
##serie
Flüchtlinge
##iziert
pre
Zulassung
##ziehungen
##gert
##.2010
Liebe
verantwortlich
##/200
Kra
##blatt
Kateg
Technik
geringer
Dipl
##Bundes
##Le
Rech
##ätze
##ville
Bud
##rick
wonach
gezeigt
betrug
##ritz
Bildung
##stant
##gungen
Jung
Akten
##hor
Schu
Frist
##nehmung
besonderen
Schwester
##vollmächt
48
##ruhe
##pfen
##ico
vorgenommen
##afr
##liefer
Schulen
Zentral
##haften
##andelte
wären
chines
Kanton
sämt
tritt
##alifor
östlich
Teilnehmer
##amerikanischer
##zusetzen
##do
Zahlen
##äume
##jahres
##Jahrhundert
Hall
Beigeladenen
Wesentlichen
##ros
##werks
Ermessen
##ändler
##mitglied
##34
jem
Instrum
Vorhaben
##21
##wachsen
##zuführen
##ädag
##Kl
inform
jährlich
privaten
##otte
Zür
Schles
russischen
##VO
Kin
Entscheidungen
Weiß
Jahrzehn
##amerikanischen
beob
Ablauf
Geist
wor
Flor
##weder
prä
39
Blatt
##landes
##deutsch
Andreas
##üste
Geschäftsführer
Landwirtschaft
##herapie
Fund
jünger
gingen
##rät
möglicherweise
Sö
ziehen
Albert
wes
evangel
Frühjahr
Ster
##aliforn
Erklärung
##ulen
1981
##sätzen
Prom
1977
##eck
##werten
Aussage
elf
##polit
Verlauf
Gottes
Web
größeren
Idee
hauptsächlich
##ux
##ida
##ordnet
Lok
Kontrolle
UN
Jer
medizin
kleiner
Vorgänger
Verletzung
##ötz
##eisen
wohn
Gegner
##widrig
erkennbar
westlich
##bezogen
##jenigen
Erwerb
##,00
Metern
##igem
##bezirk
Abschnitt
Grundsatz
Juden
Real
hil
Hause
##ärm
##seits
Kä
##einer
##fiel
tran
Zugang
Kollegen
bas
stellvertreten
Ker
ausreichend
##fehler
##lätter
übersch
Zun
Sant
##öffnung
Verlust
verhindern
##spunkte
178
##ologe
##ositionen
##führen
:
##behörde
##eiert
##TV
ff
##ängnis
solle
##scheidet
zählt
lebte
##33
Kla
erwarten
Orig
Herzog
##nimmt
##ftet
Tradition
Bestimmung
Brun
schwar
##LG
Berat
##zte
##StBl
Königreich
##rennt
##hielten
##74
Tabe
Verfol
Los
##schine
1946
Praxis
##64
Arm
##sprung
##vel
Ast
##72
Sum
warum
leich
folgten
##netz
##ichert
##beschluss
##schulen
promov
##uro
##gewicht
##uther
400
##spolitik
Entscheidungs
Einen
##Auf
##strafe
Grenzen
##erkennung
##ary
Lied
Akademie
##ata
setzen
##bliothek
##ulation
dire
##klus
Bezirk
begehr
##ugen
##geschlagen
bestehenden
##wenden
##wässer
kor
Hom
Glauben
Widerspruchs
##.2015
gehörten
##industrie
defin
##ieden
sodass
##gest
Verz
Zweit
##inett
einheit
durchaus
Rum
bringt
##iede
##hi
einschließlich
Rett
##liefert
##endes
##achter
##freiheit
Kredit
Walter
Durchführung
Mehrheit
Ag
Get
Fernsehen
##ätzen
Güter
##stehenden
Jean
Punkten
##auber
##any
Nürn
fün
fr
Unabhäng
offiziell
##Bo
##schte
Ausgleich
geprägt
konkreten
ganzen
##Land
Josef
brauch
##eitete
entlang
zer
##musik
gesetzt
##rau
reicht
Computer
gemeinsamen
Betrag
schaffen
verstär
Samm
disk
##row
##ymbol
Träger
##wak
##mon
Krieges
##siehe
44
Daher
notwendig
##omot
##namen
Kr
1967
gerecht
##azin
Rechtsanwalt
verh
##auen
##klar
Sprecher
Demokrat
##beck
Ac
orient
##öne
65
##garn
Jazz
Laufe
Arn
##eide
##forschung
Zuschauer
Opp
##wirken
BStBl
fertig
Einführung
Organis
Umstand
##heimer
reduz
##prozess
angegriffen
##ichteten
##.2009
EStG
Auseinander
##29
1965
##ießen
##kirchen
##ble
verfassungs
historischen
##nee
Jul
##klasse
Hamburger
to
1964
Kommand
komp
Bal
zerstört
Einrichtung
##versicher
Turnier
##arischen
##ace
Mand
##immel
##mat
bein
##etzten
scheiter
##Pf
engag
Erlass
dienen
##oth
Feststellungen
##irche
trotzdem
unterstützt
NRW
##ba
erwei
Stern
##renn
##reform
##union
verp
##upp
Hilfs
##imme
fe
##astrop
##üssen
künftig
##Dezember
##instanz
Restaur
##greifen
##vertei
Entgelt
1966
Nordrhein
Cent
Tätig
Darauf
##III
Tatsachen
##gers
##com
##lands
belegte
Arg
##Westfalen
plan
Fischer
55
wesentlich
Verteidigung
Weihn
##zeichnungen
ident
Rechnung
mel
Ank
Tom
James
##ican
##ikations
nationalen
##73
Staffel
Amerika
NS
dennoch
Kas
##gram
##Urteil
Rob
Übernahme
Rundfunk
Bre
Bew
Phys
Halle
Beteiligung
nunmehr
Erinner
Bedingungen
Lux
blo
##sequ
Hör
##omie
Vorstand
Bundesrepublik
##ita
geplant
##DA
##neter
bay
##ühle
##bek
internationale
Eigentümer
##finden
Inn
Belast
niedr
##usern
erwartet
ausgegangen
##liste
gehabt
steigen
Islam
Namens
Frem
Wissen
##press
Anlass
##ähler
##künfte
Nummer
neg
##wirt
Fahrzeuge
##ric
1948
vorliegend
Job
Großen
Anhalt
Besucher
Grad
##bauen
Ausgang
##Juni
Wen
Song
Version
Gab
##März
Rh
Publikum
##76
erscheinen
nutzen
opt
Wh
##ato
frühere
Bom
Essen
Darlehen
Gewerk
gere
Autom
##lingt
Urlaub
schweren
Durchschnitt
unbegründet
max
##Unter
wollten
Statt
verbr
##arts
gespielt
1962
##ynam
Risiko
VI
Ansprüche
##sucht
Wild
vereinbar
##lings
Offiz
fühl
gering
Gattung
##En
Ehr
erstes
##verbot
umfang
britische
kommun
geboten
verließ
##bis
staatlichen
genug
verläuft
##ritor
##orten
1961
Journalisten
<
##cl
Morgen
Award
##stimmen
Ritter
##hemat
italienischen
Verpflichtung
ergän
gesagt
##windigkeit
Interview
##Das
Bundeswehr
##ams
1963
##ssel
Waren
Geschä
1958
Fac
Hafen
##sekretär
betroffen
##ötet
Vielmehr
wirkte
Insbesondere
##ürgen
##Ch
Rel
Schriftsteller
aktuellen
Fünf
4,
##deutschen
##äst
##Chef
##cy
##Komm
##izei
Online
Kurs
##ssatz
Täter
Radio
Eich
einzelne
##ional
##ologen
Haushalts
##ungsplan
erinnert
hinreichend
##iber
Zeitschrift
Gran
Sto
Angst
##dienste
##spunkt
##Pl
Schwar
Anh
fra
standen
75
Moskau
##istin
Foto
##icken
##leiben
ehemaliger
##riester
##27
Wohl
1952
Cor
##ancen
Erzb
##ftware
##36
##tliche
##wäl
Herkunft
##car
##.4
CSU
##kohol
fallen
##dy
bezogen
OVG
##emente
heim
Versuch
Daneben
##wood
##39
Komment
Ergebnisse
Dpartem
Unternehmer
wolle
##weite
Camp
##arkt
Untersuchung
Klub
Wachst
##gesp
##orth
Schritt
sozialen
##trags
1000
Nah
##ünden
Spielzeit
##ration
Brasil
ehr
##gesetzten
Bremen
1943
Zeichen
FDP
##wertet
schul
##hls
##betrag
Wirk
##SC
Immobil
##din
Minder
wuchs
abger
van
##verkehrs
Teilen
Diskuss
##änen
berichtete
Anna
sinn
beschlossen
##rete
##hagen
gesund
Brem
Wand
Sar
##Ne
##finanz
abgelehnt
vorüber
##hlet
##bedingungen
Studie
Aufhebung
Jak
##organisation
##sorge
entweder
belegt
Verstoß
##eligi
Schweden
eingeführt
günst
##spar
unterb
##ringen
##dingt
tatsächlichen
lebten
rein
##bra
1949
Sex
##komp
##schüt
vertei
nöt
##anb
##gas
##enter
Dra
##ausend
##handlungs
geändert
##ieur
offensichtlich
Dafür
##reif
bewaff
##ij
Höhen
verlänger
German
##.2008
##ua
Jac
##teilen
ständig
##arl
beendete
##po
##sicher
leitete
untersch
geblieben
höchsten
##gesell
erheblich
Vorbringen
##ited
##iti
42
##Januar
##zo
##Te
My
parallel
##Mai
##gliedert
##akten
(200
gezogen
##funktion
College
Gal
erworben
##ibel
##orfer
mensch
Hum
bekannten
möglichst
on
##üssel
##gestaltung
##stär
##ender
##ps
beeinfl
Autoren
rechten
Veran
##staats
##antwor
Wortlaut
Flucht
##zeugung
Paar
1941
Analy
##östlichen
Vir
##anad
##utzung
##oben
vorgetragen
Mö
##zenz
erfolgen
verstehen
darum
##stock
##bereit
schwed
##schef
meine
wachsen
1956
##kehrt
Mord
##meter
##plätze
##anzig
Rd
hel
erwarb
##anen
Verbraucher
##aun
##geleitet
##lowak
1942
##71
##96
##steigen
Konzert
Video
##ook
##reiter
##fällen
Meisterschaft
letztlich
##sm
läuft
##rollen
##agement
nennt
pf
tief
##ics
Eingriff
Stefan
##gerecht
intens
Sowjet
Einheit
##uliert
Quart
##ächs
Produkt
unsere
##mögen
gleichnam
heutige
##tegie
Münster
##änderungen
verliehen
##Meter
müssten
zieht
##ZR
wies
##höhung
Lösung
Schriftsatz
berecht
dre
Material
##bart
##usion
Mobil
Bühne
##tend
Altern
unbek
##stern
Umständen
##abe
##93
Niederlan
Brandenburg
##DF
##rüft
Ressort
1959
Aktion
##abeth
Jack
Stahl
##chst
Stiftung
##empl
ört
46
weshalb
##hneh
Massen
Mex
aust
##krit
##itiative
Forschung
##Es
##hnehin
Bonn
Bildungs
##ente
##BA
ausgehen
Spitze
links
##agentur
trug
Friedhof
Trin
bieten
Schuld
Polit
Sammlung
Wur
Ganz
Hon
mater
Kindes
Philosophie
##ücht
Krä
##ählten
Regisseur
##örderung
##eral
Persön
Cal
preuß
##ralien
Einzelfall
Abitur
Häuser
##icks
Ja
letzter
Op
1957
Champions
##absicht
lok
##sper
Schwier
##digten
gerne
##fiz
##merk
möglichen
##Or
ph
Mass
Parlaments
##leisch
aufgehoben
##92
objekt
Sm
##itäts
Kapit
Sonnen
zählen
##ühm
Vereinbarung
School
nahezu
Antragstellers
Thr
##kündigt
##entwicklung
##cup
ehe
Kal
Roy
Bu
Abteilung
##otten
zuläss
##baum
Teilnahme
##lant
Chance
mass
Absatz
ausgetragen
Zeich
führten
Ann
linken
Ukra
Tenn
Ruf
blieben
bekom
##standes
Quadrat
##lanz
westlichen
##ordin
##gentin
Ans
Naturschutz
##alisierung
ZR
Gelegen
kultur
##iedlung
##erie
Flächen
##dauer
Mindest
##würdig
Kompon
Kanzler
forderte
Spezial
breit
##aku
##stö
##kommt
##mittag
##annter
##gal
##eicher
Aufenthalt
wirtschaftliche
1947
##brauch
Louis
Lohn
Besatz
zutreffend
1955
##bericht
##grundlage
Cast
erfahren
##retung
Quellen
Ausstellung
##handel
Israel
##leit
##46
Tore
##dels
##etzungen
Klima
##ois
Feuerwehr
diver
##nitz
##ügen
nächste
##55
##wider
Vortrag
Förderung
1953
umstritten
##barer
Hersteller
bestanden
dargestellt
##bring
Jes
Kongress
Wunsch
##liegenden
##wirk
Immer
Anwalt
mitge
1954
zeich
außen
##schm
endete
Mik
wid
rechtlichen
meint
##übung
Zürich
##gy
vierten
43
##ohlen
Architekten
Mannschaften
Vorder
betre
Evangel
Gemeinder
##hten
##lätzen
halb
##sachsen
Leicht
##val
No
Betroffenen
##grad
##unkel
lief
##wendungs
persönlichen
##ouverne
schlecht
Fans
niemand
##fäl
##öglichen
EM
##ographie
staatliche
##ask
##lichten
Metall
##gro
manchmal
Transport
##94
Zustimmung
Vis
##pag
Log
höheren
##iste
englischen
##EU
##pret
Heiligen
zweimal
Nationalsozial
##andte
Hy
namens
geltenden
##Ex
##ungspflicht
Maler
Soc
Herrn
##häl
##maßen
##stall
Erde
erforderlichen
Schmidt
##nicht
Formel
##edes
Rechtsschutz
##stätten
Betreu
##ghan
##iveau
hergestellt
Rec
##geordnet
##mäßigen
##ental
##zimmer
Ident
##reift
Ill
1936
Bier
Koch
Syr
Glo
##okoll
Por
Orgel
produziert
Cla
##ominiert
##NV
##messer
##rainer
Meinung
Lieder
River
##station
Allein
Brücke
##öch
Bab
1918
World
##anzer
Sech
Varian
nahmen
südlichen
religi
Vaters
##ura
los
Schla
Lim
traf
überp
anhand
versuchte
Neubau
##arn
##Juli
Sozi
Spann
120
Charles
stren
Bewegung
##achbar
gebildet
Freiheit
High
##endorf
##teilte
Australien
wirkt
##würfe
##technik
##Stadt
Beob
##uste
##ieger
##äußer
Mauer
##Fl
##manns
tö
##heater
##/10
##rüne
höhere
Menge
ohnehin
behandelt
##ds
Sl
DM
Unterricht
Sat
Front
##bür
denk
verlangt
##wes
Klassen
Griechenland
Freiburg
Bewertung
Debüt
##üch
Premier
1934
Ziffer
##Art
mittels
Voraussetzung
##44
Single
##oret
##.2007
##einheit
Zimmer
##ätestens
Gläub
längst
Bir
unten
##Hol
Regie
##wies
##ürzt
##fir
Wander
ermittelt
Sonntags
Dor
##gebiete
Tschech
gelegt
##beschwerde
beschränkt
Wetter
starken
landwirtschaft
1)
(3
Val
Anleger
zuerst
##National
Hü
##setzte
Äußer
##Sa
##iode
##muse
beendet
Beziehungen
##77
Büro
##weichen
Dör
braucht
##ländische
Serv
Fonds
leisten
tot
##rennen
zurückgewiesen
Jagd
verurs
Drittel
Bewohner
##enzen
ad
##imen
##udes
erhöht
##atoren
##58
Aufbau
Eindruck
Dennoch
##63
##abilit
Prinzip
Amtsgericht
infolge
##:1
prüfen
Gebrauch
konzentr
startete
Feu
stehenden
1919
Hert
Bä
##anteil
##stoßen
Mär
##JW
sex
nebst
Berechnung
gehe
Heer
Krimin
Verhandlungen
freien
##gemeinden
##-)
##Aug
Fass
##fällt
Rücken
zunehmend
##trä
Wappen
##grenzen
getötet
bezieht
##ötzlich
Ordnung
Grand
##ory
Klinik
Stunde
Gefängnis
##ony
erbaut
Handel
##ränkung
Wett
höchste
##urt
Cont
Soll
ändern
Ungarn
##Oktober
##amin
Gün
künstler
Anerkennung
Rheinland
##liegt
##Gesch
Auskunft
Einzelheiten
Fisch
##städ
abgesch
##ädagog
christ
erklären
##utto
##real
übernehmen
Kabinett
##wuchs
##hängig
hierfür
##achs
Kenn
##rischen
Christoph
Fälle
feier
##cm
##FA
komplett
notwendigen
verwiesen
##amerika
bezeichnete
Weiteren
beurteil
auszugehen
##43
##schloss
##kla
1951
Tel
Bundesk
##schaffen
##losigkeit
Regional
eigener
Zusatz
##arakter
##ussen
##ban
##ston
großes
##lehnung
##FG
##42
gemeinsame
##91
nachvoll
Revolution
##kore
1935
Ven
Zuständig
Auswirkungen
Ausländer
##WG
ü
bewusst
##hG
wert
Möglichkeiten
##erinnen
miss
Division
##ords
konkret
##sur
Priester
helfen
Marc
Regeln
eingerichtet
schließt
Entwicklungs
##endeten
Zehn
Zunächst
verboten
##terie
##möglichkeiten
Bat
##zusehen
##ungser
ag
Ring
##mäßigkeit
Blüten
##grenz
##räumen
bildete
##sende
Anb
Beziehung
lern
##otent
##47
##500
erweitert
rep
##geht
1937
##BVer
befür
Ärzte
gesellschaft
##krieg
##leihen
welchem
indes
##gründen
##grö
Werner
Konflikt
Genehmigung
##62
##empf
Ebene
##uls
##aw
verbreitet
Roll
Angeklagte
##ändigen
Grä
durfte
schließen
##füllung
Abgeordneten
Misch
nutz
Erkran
erl
Rudolf
Abschie
verab
##familie
glaub
5,
Opt
##zone
Gebühren
##assten
##brücke
nannte
Strecken
Widerstand
##oy
beginnen
angelegt
Aufstieg
##person
unzulässig
mut
Integr
##Chr
##wechs
ko
legt
##punkten
Open
##isieren
Einrichtungen
##etern
Verantwortung
##hmen
Architektur
##ätzt
##September
##iana
##usen
##85
##onte
zwingen
eindeutig
ursprünglichen
##lässlich
##amtes
##spann
##leb
Disziplin
##renten
bekommt
Mainz
spät
fahren
schwarz
##aser
Ehem
Gesellschafter
Beck
Konkurrenz
entsteht
##echte
Tisch
SS
##gessen
sor
##äger
Erweiter
NJW
Willen
Stellungnahme
##wahlen
Erg
gener
Opposition
sowjet
Rekord
Cap
Grafen
kurze
##hoff
##spflicht
##schreiben
Einer
##hörigkeit
dra
gemein
##emann
##gegenständ
Ausbildungs
##splatz
rechtfert
Show
Dpartement
dargelegt
##iftung
Unterschied
##hörige
##iefe
##wält
Herstellung
Weltkriegs
Gemeinschaft
Manager
Sieger
behauptet
Moment
lautet
##besitz
##stoffe
beauf
Bestimmungen
Suche
ged
Telefon
Grundstücks
miteinander
bewe
Nordosten
##BGH
Linien
Immobilien
Nürnberg
nördlichen
geist
Vorlage
Portug
##ammer
ausgestat
endlich
'
abgewiesen
##klass
Mur
Kategorie
Verdacht
Vorgaben
##gehende
Notwend
Lig
##ränk
--
##volle
1900
##etzter
##Qu
Rosen
betrachtet
verfolgt
Eintritt
Maßnahme
##con
Nahr
##nissen
1928
erhielten
berühm
weib
muß
##atisch
##etzte
##fristig
Kais
##88
Mes
##erb
Fürsten
Quer
Zwe
Vorstands
Höchst
##sberg
##November
##iol
Daniel
Zentr
##adel
aufgelöst
Wag
##ängerung
endgültig
Jürgen
##öse
##ungszeit
##abteilung
Aufsichts
frem
##leute
Bist
##fabrik
##ografie
Abt
##bogen
Thür
Besonders
absol
##hu
##beteil
täglich
BAG
Klei
##verletzung
Atom
##werken
gleicher
##achim
AR
zuständigen
versehen
Schleswig
##ye
Unterlagen
beige
Musiker
freiwill
stehe
##eiche
##jahren
Bisch
rot
##ordnen
getragen
Bundesstaat
47
Temperatur
Streitwert
##bern
##zens
Nov
American
Tief
Klass
Beiträge
##gesellschaften
##66
eigenes
einzigen
Dien
##aro
Cup
Qualifikation
##iland
Liefer
Dadurch
##Ent
##ugend
Fahrt
##uropa
Auflage
##April
stamm
Existenz
Nic
Ähn
Spiegel
extrem
Siedlung
##eigent
Vogel
##hockey
##äudes
integr
Nie
ließen
bedarf
##ateri
gesprochen
##stamm
hundert
Anhänger
zusätzliche
##orien
Gru
##leistet
##49
##wan
##astian
gelei
dig
Anders
##rikt
##31
##gol
##zahlungen
##mittlung
##owski
Formen
Landschaft
##ßig
Gang
starke
##wal
##auert
##inne
##olz
##lässigkeit
Fürst
Kiel
maßgeblichen
Haut
BM
betroffenen
gegebenen
Marke
41
welchen
Neue
##alisiert
##Spiel
##ora
mark
vgl
##SS
Gedanken
BA
Untersuchungen
##änderte
BFHE
##istent
Brüssel
orden
##bahnhof
##erische
##machung
Schwerpunkt
nachgewiesen
##sdorf
bestehende
Anhör
##istr
Forderung
Gymnasium
##assel
Sprin
##röm
hören
##bereitung
##häre
gelegenen
Ausbau
##äuden
Zurück
Afr
erfasst
sicht
anerkannt
Original
laufen
##79
Versch
Put
##ulgar
maßgeblich
##Prozent
Ermittlungen
vergeben
Drogen
zugunsten
ermöglicht
##orter
1914
Dinge
##pat
Produkte
heil
Reihen
Städten
##Her
##struktion
##FB
kurzen
rechnen
Schauspielerin
Korrespondent
##indungs
Oder
Gött
aufgestellt
Territor
##holen
Vergütung
mögliche
ermöglichen
Kapaz
Mig
liegenden
250
##prof
genehm
Darm
etabl
Eber
##echten
musikal
Eingang
##aktor
##ziehungsweise
Anp
Ingen
Karlsruhe
Fritz
##fonds
##etto
##69
##hod
Kil
Tätigkeiten
Ebenso
Gäste
treten
##akult
Südwesten
##edig
Gesundheit
##weiht
Fal
abgeb
Enga
##/12
##gä
Gleichzeitig
##atischen
##Straße
seitdem
Heidel
##regelung
##Gen
##August
Mac
Landgerichts
Teams
##mäßige
räum
##Euro
##Im
##orps
##klär
§10
Ziff
##furt
##falt
##Besch
##kn
überw
##its
einiger
##wn
1932
49
##/201
bedro
Angeles
erlaubt
verändert
##steten
allgemeine
##.:
##örp
Autos
Island
##SPD
##fält
Mol
##essel
52
##ommern
Gefangen
##):
Minute
##bas
##dach
Neuen
Kos
##ira
Mod
Ziele
##irol
Entste
##.2006
##nant
lö
diskut
Anhaltspunkte
##ction
Ly
Dortmund
kennt
unterscheiden
einerseits
Exempl
Feder
Vorliegen
##kreuz
Bart
##stitute
##histor
##ual
männ
##ündet
United
##ziel
##unnel
Status
ferner
rad
sämtliche
beziehungsweise
anschließen
1929
Rechtss
##lichem
Grunde
##37
region
Kö
##altete
South
Vertrauen
Lau
Papier
Wit
Schle
system
##uff
hand
##kultur
Station
Wohnungs
Europameister
Erzähl
##otion
demnach
hoher
##vertreter
andererseits
Information
##dex
##witz
##handels
hinein
##ektar
schwere
Lad
Gitar
##schi
Reaktion
##ink
##stücke
Zwangs
Traum
##äumt
Entfern
angeblich
Nav
kontroll
Ze
Hub
##ungsanspruch
##bauer
##Preis
1,5
Jakob
hingewiesen
##Geb
Elis
Fäh
Freunde
##unken
##beruf
##8.
konkrete
##stechn
Anwesen
Eröffnung
entschied
##anda
##phase
Figuren
herum
ordnungs
##werben
##name
LSG
##kriegs
Brüder
gewalt
Bell
Demonst
##andele
Errichtung
Kro
Nordwesten
##schend
Dän
Antwort
Av
Ausgabe
Internationalen
Erfahrungen
##ünde
##ändige
Südosten
##61
##baus
Gerhard
Software
schützen
ungefähr
Gest
auseinander
Hohen
Bedarf
Refer
Schmer
##bay
##üll
Diplom
Lebensmittel
dortigen
##oo
Play
Bevölkerungs
vertra
geplanten
Alkohol
Cha
##front
jemand
Automobil
Ukraine
vorliegen
110
##verbände
Begl
Tatsache
##bran
Mittelalter
##hes
liege
genannte
bi
Treu
##artet
##erer
Gust
festzustellen
##schicht
Abstand
Francis
Flugzeug
verbesser
teils
##verwaltungs
##urer
Autobahn
##ani
morgen
##jor
benachbar
besitzen
Süddeutschen
wirken
langsam
oberen
Planung
Erschein
technischen
elektron
Arz
Stär
Dir
sport
bezüglich
komme
##iqu
geborene
modernen
##ausgleich
Notwendigkeit
##ues
##gegangen
##Fra
##lohn
betrifft
suchen
##umente
private
##arische
Wochenende
Auftritt
Saar
Bord
Orte
Pau
##bedür
##euten
##ales
##örter
Niederlage
Weihnacht
##eider
dokument
Hir
##apanischen
Auflösung
Kölner
entlassen
##größ
inhalt
##jew
##Part
Hinsicht
##CDU
umben
Kapelle
Tö
##ces
##unschwei
##stuhl
Söhne
##istischer
600
Verd
##strecken
zugeordnet
eingeb
##Ich
Afghan
Preise
Flur
KG
Krise
/
Seb
bestimmen
geschütz
##modell
Treffen
Experten
Kandidaten
##vater
Französ
##emm
station
Zerst
Krankheit
##ey
handele
Ehemann
##enkt
##älde
##isierten
Erhebung
##täu
Kombin
##lige
##bringung
nachfol
##sinn
##rente
Elektro
wichtigen
##skosten
erstreckt
wichtiger
Tode
Sonntagszeitung
Polizisten
still
Rechtsmittel
Sel
Stich
entnehmen
##BC
##folg
unserer
verschw
Niedersachsen
##üren
Verfassung
(199
Einschätzung
##lenburg
##wege
##geworfen
##fällig
del
##/13
##uc
##vort
##worfen
Festival
##mitglieder
getrennt
politisch
Kolon
##sersatz
Sw
##Pfalz
##sender
##walter
SV
##teg
##öffnet
arbeits
Revisions
Umsetzung
##nehmern
eins
##graben
Pläne
##präsidenten
Glei
Mühl
Vermögens
wirksam
Filme
gegründeten
##eidung
Dub
beschreibt
1925
##fre
Bestandteil
##.5
##spartner
##ilien
fehler
Sn
Bri
Rücktritt
##Nach
##ket
(201
##emark
verste
bestehe
beantrag
Szene
ausgew
##mär
Fle
verlegt
##ER
Adolf
Last
handelte
##riss
Toten
grundsätz
##ique
Len
SGG
körper
Etwa
gleichnamigen
Tonnen
Ram
Hauses
Verhältnisse
Schnitt
##SchG
##heute
plötzlich
##ring
1924
##onym
zweiter
hängt
sitzt
(5
##entgelt
Objekt
##oria
##paar
fuhr
##skrä
##Dollar
erhebliche
1910
##ständlich
Wohnungen
SC
##alls
##beginn
Beschäftigung
##das
Sur
besetzt
Schwierigkeiten
kanad
profit
müsste
##issar
Lind
##medaille
Mun
Zahn
städt
##bilder
##örungen
Acht
Ferner
Kriterien
Kooper
##räsid
Kons
##oppelt
Himmel
##elevan
##öss
jener
Sender
##ging
Rem
höchst
##ußball
##Gruppe
unterschiedlich
Stimme
Vorsitzende
Kanada
Ufer
katholischen
Marine
2011,
Bebauungsplan
##iale
##sex
Aussagen
jahr
##indet
##ährungs
Roh
komm
Entwurf
##ays
Beitrags
##odor
Schuldner
##verhältnisses
Schiffe
schwerer
Kart
verstorben
160
dän
Hill
2010,
##orts
Hinzu
samm
Scien
##einigung
##amerikanische
Zoll
jüdischen
Europas
Warum
benutzt
Mas
##stä
##kauft
Pier
##ütte
Lehre
älteren
Jungen
##sky
##hat
Verständnis
##aner
Ortschaft
Sowjetunion
##wägung
Stadion
##41
##rische
Alfred
Kommunal
beabsicht
Katastrop
##nan
##scheinlichkeit
Vorgehen
##läufer
richtet
##chef
eingetragen
Werte
Vielzahl
Keller
##schaff
##verbandes
58
##ranten
Konzer
späten
##sprecher
##ips
gefallen
nachträ
##reck
##sprachigen
Wissenschaftler
Hinweise
Zer
persönlich
Irak
Eu
##rücken
##blätter
Inland
Befrei
wiederholt
nachvollzieh
vorn
darstellt
Figur
Leon
beauftragt
##.2005
reichen
automat
##KG
##attet
170
##kehren
Sekunden
##museum
##echnen
leist
Forscher
Vorteil
##opt
Vorbild
##konzern
##körper
##gnose
1927
Eck
Jos
Studio
##ebook
Marken
##ußert
gemachten
Can
Schulden
akzept
Drehbuch
Europäische
historische
ums
positiv
Generation
Protest
Sab
##gehenden
Indien
##hig
russische
entwickeln
Zentimeter
Bahnstrecke
##uens
Organe
##viertel
spanischen
##dlich
Milch
##zene
ta
##dinand
##ischt
Bayerischen
6,
##inar
##ländern
Bedenken
##gebir
##erklärung
##holung
legen
Lot
##felder
san
+
Master
Schrö
##aktiv
##afrika
Ban
##ulierung
Forst
Zeuge
##schwer
erfüllen
##odurch
##gerechnet
##erken
CD
unterhalb
Ausschluss
Iran
##iedelt
endet
Golf
North
##reicher
bundes
ungewöhn
##jähriger
##ags
##kat
gewährt
AufenthG
blau
##amts
besie
##System
Deck
Rettungs
erlassen
##spartei
keinem
##wirkt
2014,
Mitgliedern
Platten
##Jahren
vertrag
##sens
sitzen
Restaurant
festgelegt
##gerichtlichen
jung
abgegeben
Eishockey
staatlicher
##derungs
Alltag
##bef
Insoweit
##ouverneur
Widerruf
##ogle
Braunschwei
Mön
griechischen
Films
##flügel
Weltkrieges
##ela
##konom
wodurch
Überprüfung
##bilden
Mitbe
fordert
kündigte
##iertes
erteilt
rechtlich
festgesetzt
Laufbahn
Mount
##ligisten
unterrich
besaß
rest
##/11
##urn
##sonsten
Informations
##iw
Schadensersatz
nennen
Besitzer
##vorschriften
Arbeitszeit
64
##gerichtshof
Comm
##alerie
##artige
##eldet
invest
umge
Künst
##-2
erfordert
##inzip
##vertrages
entsp
Einnahmen
##out
Erste
Joachim
Tanz
Cas
hierbei
Worten
Nachfrage
##lav
##riz
##alender
erstinstanz
vorübergehend
##Mill
begründen
##genehmigung
genügt
##strum
Strategie
##hende
##bad
Gestaltung
verschiedener
Mund
Facebook
jene
nationale
##ards
Schied
##partei
spätere
##figur
##fragt
Fakult
Sturm
bestritt
##bewegung
ausgewiesen
##gau
##usste
Ohne
laufenden
##mag
Franken
damalige
##brü
##heorie
##Deutsch
##schuldner
Werbe
publ
##ofs
##annen
Kub
gearbeitet
AO
##lieger
schm
Aufwendungen
69
Ten
abhängig
##daten
Wiederauf
natur
einstwei
kleinere
Aud
##rede
vorhandenen
Große
Geh
##bevollmächt
Back
##app
##ota
älteste
ausgestattet
Umgang
##ove
Eint
##chern
##gerung
Angelegen
##endigung
Verwaltungsakt
##Main
schaff
Daraufhin
übert
Luc
##welle
##linder
Vf
soziale
##mlich
Wachstum
Verteidigungs
Regionen
Pu
##lange
Stoff
Gewährung
IS
befind
##herren
Sprachen
Est
geraten
##stunden
##3-
Besetzung
ausgesetzt
Überw
Gründer
offenen
##irch
finanziellen
##lim
Ferdinand
##fa
",
##ilian
Direkt
##atin
Kard
Verwand
Entgegen
##teuer
national
Anz
Block
Flügel
unteren
versp
Dritten
##arriere
##una
Gerichtshof
##kehrungen
Bewerber
Zins
##bell
umgeben
oper
Geburtstag
##alifornien
Brasilien
##österreich
aufgeführt
Gefahren
##rocken
##zwungen
1921
arch
2012,
Bronze
Athen
liter
aufgebaut
##rates
Ulrich
##Februar
Chemie
##kathol
leitet
##Vers
Box
1923
##ssystem
Mexiko
zumal
Straft
keines
Diet
##bereiten
Hoffnung
##zweck
##zell
##hardt
Urs
##Politik
Wende
sucht
Elisabeth
Vill
deswegen
Royal
##deutsche
##produktion
nominiert
Behinder
##pre
##IS
##aud
##icker
Pens
Verlängerung
54
##ungsklage
rechtfertigen
Bol
##atische
urkund
Syrien
Chancen
##findung
##straßen
Aussicht
##aux
sog
gegangen
fließt
küm
##stil
##lebt
##gehren
Monats
Gründungs
##ior
##gigen
Dok
##sphäre
##häusern
Haushalt
Börsen
##bungs
##mauer
vorgelegt
Dritt
Ansatz
Autorin
zuzu
##/09
Mut
##händler
##licherweise
Leser
ren
Kalk
##ws
##titel
##hofer
unterstützen
##HL
##So
umbenannt
##ührt
##direktor
##lichkeits
Black
##86
Google
##gler
Amtszeit
##Sie
##stande
##ächer
Jeder
##ria
##andal
worauf
51
##text
Mio
Änderungen
Turn
schreiben
islam
##ierend
japanischen
130
1931
##bedarf
Forderungen
Ortes
##okraten
bedeutend
##star
Ergänz
verstanden
Kurt
Aufenthalts
Sachverhalt
Kino
Andere
##problem
Diskussion
1922
erlä
##region
Handlung
falsch
Einkommensteuer
##igter
stattfinden
Beschäftigten
##essischen
machten
Sus
Meck
Züge
angekündigt
##iefen
Serien
Nachweis
Theologie
Äg
800
mar
sofern
Passag
Pfarrer
Adr
erfolgten
##not
Music
Alpen
##kas
Geschlecht
##frastruktur
Erfahrung
##pekt
##deckung
##rages
erforderliche
Veränderungen
Dig
Ther
Landesarbeits
Aussch
Tu
begrenzt
Feuill
Verfolgung
##eiern
schlug
##ämpfer
Rente
##eihe
spätestens
östlichen
56
Arznei
Lebensmitteln
##ado
gern
##oden
Großteil
##behandlung
##kunst
polnischen
##ministeriums
##.2016
ausgesprochen
Erfolge
##weiten
2013,
##kop
##gramme
##schlags
04
Bühnen
##rüst
Merc
freie
Gustav
Rathaus
Wahlen
##zellen
Wahlkampf
Kamera
##medizin
spielten
##ekul
Landschafts
bot
##gebote
aktuelle
Initiative
1912
diesmal
##auso
##säss
Gelegenheit
##stie
Allgemeine
##echan
1926
verkaufte
Erforder
Abwehr
Sendung
erzielt
Henry
2009,
Verbesser
Farb
Mission
gült
##einhalb
##phan
##hofen
##rib
##gemä
Streitfall
vertrat
versuchen
##sab
Steuern
Rollen
Letzter
gehandelt
Verbot
Priv
Fotos
##gab
durchge
##glos
fung
Gau
##skon
##swert
klassischen
##gewalt
handeln
##por
(4
anal
Erwart
Wes
##gig
##gebieten
##yle
Tab
vieler
Kathol
monatlich
lagen
Dänemark
##52
##räsentanten
BauGB
Magde
##ördern
##spir
wechseln
##ku
Inseln
Museums
Pfar
Sonne
Botschaft
Erteilung
vermeiden
##bchen
Charl
Anspruchs
##ella
fach
dienst
Gebiete
Oberst
OLG
Klavier
Afrika
Roten
VW
glück
AS
##geblich
Inhaber
##deln
##zenten
##gebe
Nachwuchs
Meeres
##pap
##projekt
angefochtene
##ichtung
auftreten
Ken
Karten
Chic
Kündigungs
Diesen
##Ober
lehnte
Allgemein
beit
lo
Gefähr
überzeugt
##schuld
Führer
##seitig
Maxim
Bett
Aufwand
##ödie
##aktoren
##ird
Sicherung
##.2004
##ahrt
Völker
sorgen
Jahrzehnten
Betroffen
##örtert
unzur
##auft
Gerade
Million
##äler
gleiche
bill
Villa
Hug
Spielt
##PS
##ras
Trink
##kow
Einzelnen
##uel
##kopf
##gründer
##ridge
##horn
##gehalt
betreibt
Rechn
vorbe
##üte
##nüpf
Vict
##Jahre
Reda
gelungen
abzuweisen
verkün
##87
##rond
beschä
##underte
zivile
##bund
##stimmt
ille
##53
##fangs
Bernhard
Beigeladene
##räte
Schäden
Schnell
Arbeitsgericht
##IV
Ori
##enten
##iation
##Holstein
##bahnen
betreffenden
errichtete
Prote
Festsetzung
##ämpfe
##Süd
DFB
ZDF
kritisiert
##witter
##institut
Vereinigung
Domin
mithin
##ierer
##nieder
##bem
##Mann
##übt
Chin
##estern
##unterricht
beider
europäische
pop
Nationen
##ii
Cro
verstärkt
##ther
dürften
Beendigung
##born
##nes
Ebenfalls
Streitkräfte
##meer
Zuvor
Tabellen
##gestellten
##attform
##ikanische
##cu
Weißen
Party
Veranstaltungen
Einstellung
##gebiets
Unions
BV
zitiert
unterwegs
##kolle
Trag
Ausgaben
##arf
Hund
##legungen
##ilometern
Veranstaltung
Brenn
Matth
##/14
wün
begeg
gewöhn
Wahlkreis
##ologisch
Satzung
##gewinn
##hauer
Einkünfte
##bücher
Ideen
eröffnete
türkischen
##bacher
##ränkungen
##holog
##strom
Buchst
##ais
Engagement
53
Atlant
Flüchtlings
beschrän
##56
Carol
Bob
lebens
bemü
Bruch
Staates
berechtigt
##herrn
##inu
##waffen
##pflege
##ates
Aufklärung
Mu
Fast
zeitweise
austral
Tennis
Gemeinsam
Afghanistan
Adels
##ül
DV
angeschlossen
##Ger
Berater
chinesischen
##icke
Liber
zugänglich
gegründete
##rock
gelegentlich
##sverfahren
##dreht
##nitten
##decken
Verurteil
##ader
##kw
##klagte
Gelt
##Zeit
##/08
##ianer
##Neu
##lehre
7,
Madrid
##önen
##ündnis
anf
Erwachsen
phil
Beweg
Mitarbeitern
Objekte
veranl
##riel
Gebäuden
Heidelberg
individuellen
geplante
##zählung
Gall
##athlet
person
steigt
##eland
Schicks
Trennung
Gegend
niedriger
##83
Überzeugung
##ausende
##systems
Straß
Bereichen
##ehrung
##Mitglie
BVerfGE
Kommunikation
Sieben
Universitäten
dank
Lä
##het
##atzen
Live
##weislich
##jahre
##genöss
##fass
##ifiziert
##wissenschaftler
Mi
##ption
ansäss
Lande
##mitte
##asi
Mitgliedstaaten
##steuerung
Hauptsache
Ursprün
Bundeskanzler
ärzt
Fabrik
Angela
##genossen
Texte
train
Übertragung
##El
Edu
##ungsrecht
##ails
min
##Institut
gesetzliche
##Kreis
weite
Oberlandes
Religion
Design
Rä
Rau
##entsprechend
wesentlichen
##gleichen
unklar
##ny
##sparteien
Pak
Sebastian
frühe
Nikol
eingetreten
##edition
##ianischen
Urteile
Vö
verwei
erheblichen
Hat
##IN
##spur
Company
Differenz
Theorie
anzusehen
französischer
1913
mon
##güter
zurückzuweisen
##fels
persönliche
##Europ
##armon
weisen
offiziellen
##iano
einschlä
Küsten
Wähler
Alli
Pir
##chron
aufzuheben
##geschä
voller
##ppel
##kandid
##gendes
##84
Prag
Spät
reagieren
unterstütz
##album
ziemlich
##tes
Konsequ
##usse
2008,
Einheiten
fü
Kalifornien
außerorden
##ET
Basket
Parallel
Erzbischof
maximal
gestorben
##igner
##darfs
Tax
##jekten
Aufnahmen
angeordnet
2016,
rechtswidrig
Hyp
begannen
Vorstellung
##phen
##hungen
Jugendliche
ans
Hell
Anges
Entfernung
##schten
Sym
##nummer
Bv
##Berlin
Rechten
Sitzung
##uns
##kasse
Konzentr
Amate
nötig
passiert
cm
Motiv
##DS
lieber
Halbfinale
demokrat
##BFH
##folgt
##hören
Küste
darstellen
##ywood
rechte
##gesprä
Records
Vertrieb
##organis
##Mus
##hersteller
140
Zulassungs
Produktions
(,
##schu
Feuilleton
##junkt
Kult
##ec
##act
Kohl
vorwiegend
erinnern
fehlen
##ows
japan
Fakultät
zentralen
§7
versetzt
wendet
##behörden
Führungs
##VfG
##var
Ägyp
Preußen
solches
geregelt
Dol
Durchmesser
##ando
Angriffe
gebunden
##hän
gestaltet
##ialen
untersuch
##vollen
abweichen
römischen
Fußballspieler
##förmig
Mittler
##küste
##rill
Hertha
Würz
##ministerin
##eimar
baute
##spricht
Posten
Quelle
Elemente
Aachen
Erfolgs
##otto
konserv
##ungsverfahrens
##schiede
##Kommission
Erinnerung
Management
y
ide
##ly
Geburts
bisschen
straf
##afel
Van
Augsburg
Summe
dritt
##sburger
organisiert
lehr
Orten
##ütze
Nachfolge
##bungen
Chicago
aktuell
unzureich
verfasste
##hnten
2)
##laube
Anhörung
##eise
Stan
##quenz
##digungen
kost
##-/
dan
Plätze
Übergang
Freizeit
Lokal
beanstanden
##artig
schne
##ji
Erne
Debatte
##antas
##hematik
##miss
Hockey
Unrecht
##stehende
Markus
untergebracht
Spitz
Marien
Vorkehrungen
##irt
##ürmer
speziell
Braunschweig
##ugnis
Finanzierung
##größe
Klar
Erfüllung
Rechtsstreit
##san
##glas
Tok
Hard
##belast
##Zent
Damen
italienische
Obama
##5)
Schieds
##gebühr
Hektar
##leun
Infan
Pots
##ky
Spar
Training
##hur
##glück
droht
##fügt
##mith
##ämpft
Behaupt
Einkauf
##vorsitzende
Vin
##spiegel
##baute
##kul
Pferde
Matthias
##motor
Republ
erlang
Haltung
##adion
##artigen
Abweich
lesen
##fekt
Brig
##ilder
##Präsident
Armen
##konferenz
Orchester
##ress
Andr
##nchen
Junioren
gerechtfertigt
##82
repräsent
SA
##gerufen
Mem
verlangen
Mecklenburg
meinen
angehalten
Klin
ausführ
Hab
dauern
##urnier
57
Fremd
##.),
bauen
Unterhalt
Farben
Wagner
betont
Beeinträcht
##lösung
##verträge
##arry
Aufmer
mangels
##no
Kost
##risten
Innenstadt
unterscheidet
Individ
Männern
##folgen
Assoc
Brust
unstreit
vereinbart
Honor
Muster
##klei
##lös
##gu
privat
dringen
errichten
untersucht
verbrachte
##schieben
verbundenen
ost
Spark
Kapitän
Kob
10.000
##position
bestätigte
05
vorliegt
verteilt
Ausübung
##schlägen
Freundin
verbindet
Zwecke
Jed
Bass
##wärtigen
stellten
Aktivitäten
bra
verstarb
Bilanz
Simon
Deutscher
fährt
Horst
Amerikaner
##ila
##elbe
vorläufig
##änner
Schwä
Ablehnung
##bürgermeister
Ruhestand
##oral
Prakt
manche
begründete
x
könig
Oscar
##hre
vorgestellt
Basketball
##las
zukün
existiert
##ump
Franzosen
##ssen
1911
su
##offiz
##ourt
##haftet
nachzu
##enkung
herange
##farben
2015,
01.
##Par
1917
zulässige
##gegenständlichen
Lokomot
Schall
##ilde
Street
Kanz
##emit
##firma
##pper
##sächs
##izierte
Mikro
nied
Unabhängigkeit
Golden
##CA
##ops
##gi
ebenda
1908
kleineren
beeinträcht
Akte
bürger
Nutzungs
##alte
Panzer
##utung
Sprech
Wiesb
##rate
##sieht
zentrale
mittleren
Ihnen
Argentin
Tempel
##zeichnete
##ieb
##gf
üblich
Helmut
begleitet
Phase
sin
##geschwindigkeit
Dial
Umfeld
##201
Publ
Belgien
##einbarung
Wahrheit
##freien
Wicht
##air
##ernt
##länge
##omet
##anuel
Gebir
##oto
##aufen
##begründung
##200
##bor
Fla
Geschäfte
1907
Untersuchungs
##ZB
##teren
Emp
fünften
##einheiten
Trotzdem
##anal
State
##kapital
Sau
gänz
ergebe
Sauer
Entschä
Wiesbaden
Hitler
golden
2007,
##heblich
Trieb
Pek
ehren
Sha
zuständige
##edikt
technische
##stedt
##fügung
wächst
##eignet
##57
port
beherr
Mir
Rod
##reuen
zählte
verlängert
Werbung
##Bet
Ron
geringen
##51
Argument
##kes
##inischen
ausgesch
##atsächlich
##einkommen
Übergangs
##iety
krä
##89
geschlagen
frist
##atal
##sert
verweist
Erweiterung
##räsidentschaft
zweier
##berechtigten
Leop
Schneider
##kal
##low
keinerlei
schwierig
##mont
Gipfel
eingegangen
schuf
Institute
betra
##IA
domin
mehrerer
sonstigen
Bibliothek
##59
##ähn
##orient
Begeg
vermeint
##BAG
Rio
##quart
Barbar
verkaufen
Stimm
weißen
Gemälde
##hers
Asien
Lärm
gewerb
komplex
Maßgabe
Arbeitsp
benötigt
latein
inne
Farbe
1905
##ätte
Gemeinderat
Prior
Kommentar
vorgelegten
Koll
geriet
Werken
##Med
hart
Eigentum
Reisen
beantwor
anfangs
beziehen
##ucher
ARD
##essern
2,5
Bos
Ausschuss
Cre
##leistungs
##ausbildung
##zeitlich
Ell
eingest
Gebäudes
präsentiert
##ärme
tarif
##enken
##verständnis
entf
unterstellt
überwie
Rechtslage
geschützt
Heiz
##eiteten
post
passen
Dieter
##MS
##setzungs
Tarifvertrag
üblichen
##isen
##verhalten
##lor
Beamte
Vorschlag
##reche
##gentur
##unen
verfüg
auszuschließen
Freiheits
mächt
Betreiber
Opern
##öder
Olympia
Ensem
scheiterte
Ox
##spitze
besucht
umfasste
geklärt
aufgegeben
Erhöhung
Kris
Fortsch
brauchen
Tit
mittelalter
Jahrgang
Gläubiger
Ess
Service
##obel
Geräte
##OS
##Band
seither
Identität
Schlüssel
Pen
##heil
##partner
Schröder
Yor
Angesichts
##ärten
##field
gesonder
Saal
Barcel
##organ
verwenden
08
##kurs
##lieb
Vereine
##entwick
regu
##ati
##ettet
erreichten
##TA
gänzlich
##wirksam
Gefühl
Ordnungs
Fleisch
Ursache
##etenz
holte
erober
hinreichen
##widr
66
römisch
rechtliche
##lowakei
##teilten
Bereit
Tüb
##/07
schied
vorange
Ermessens
chem
Schal
stimm
aufs
##rondiss
Gebieten
schaffte
Span
Breite
benachbarten
##gelte
##lagt
##autor
Königin
Py
wann
lernte
##oche
##periode
Hierbei
##erven
##inhaber
##oping
##zogenen
##führerin
##mühle
##gefunden
seinerzeit
schneller
##reihe
vors
anb
erkannt
preußischen
phys
##BS
Entstehung
Kapitel
immerhin
##Met
##gere
kurzer
Kein
ries
ältesten
##fäll
##brech
Donald
überall
Umbau
##voraus
##stellers
tschech
##Fin
##Anhalt
##minist
Ermittlung
frag
##denkmal
finanzielle
##Serie
##zem
##öz
Integration
vorläufigen
##ipend
arab
##zügen
Tatsächlich
israel
traten
spezial
##möglichkeit
promoviert
charakter
gerichtet
Verfüg
Vorrat
überein
Basel
meiner
##krise
Leiden
mutmaß
überraschend
derselben
tat
##Aut
##lagern
angemessenen
warten
##meisterschaft
Arbeitslosen
Operation
##aktionen
House
Weiterhin
genauso
Anwendungs
##gekommen
##alem
Stab
as
Anne
Aufmerksamkeit
##aillen
##aterialien
unbedingt
Group
zentral
##);
##schungen
Sei
##änderten
Nap
##ütter
Messe
##RA
##akademie
##sson
Bedür
Jon
aa
eingelegt
##meier
gestiegen
anlässlich
##hy
Green
Sankt
gaben
Grundsätze
Kritiker
praktisch
Mathematik
##ahe
Apothe
Zuständigkeit
Hollywood
##bewerber
digit
Dichter
bessere
Beschlüsse
##leiten
##brig
Nutzer
##rans
Freien
Protokoll
##Klasse
##emburg
verblieben
Demokratie
##/15
Arrondiss
VII
##vorsitzender
##Am
##rs
##ieh
##deckte
##schirm
##iki
beachten
kn
##achteil
1906
Unser
Weis
reduziert
##AZR
Vergabe
##81
Noten
##ürzung
=
Schwa
Fein
nachvollziehbar
Heinz
##ifik
finanziell
örtlichen
Schau
##KW
PS
##gesetzte
##skraft
veranst
##engl
Norwegen
##zelt
##ersatz
Meyer
##konzept
Bewill
Ve
Trend
##ethe
Emil
moderne
##lament
gelegene
rom
bayerischen
##otyp
zwanzig
Elf
##geräte
##lehrer
Deleg
##elen
##barungen
vorzuhalten
tät
62
##schlagen
ermor
##quote
unan
abgesehen
abges
##ema
##platten
definiert
stabil
vorne
##studium
##wahrscheinlich
glaubt
##rugen
8,
Variante
Vollstreckung
##affung
Aff
##önt
##gefahr
##ummern
jüngsten
Hau
gerichtlichen
09
##örte
Anti
Schriften
59
Fell
befördert
##sey
##ohnt
Spuren
greift
ergänzt
##fahrten
Kassel
Fü
##klagten
##ilen
##Min
(17
Acker
##atorium
Kombination
Tsch
Funktionen
Dampf
ursprüngliche
Lasten
Zy
##menge
##essung
Brie
bisherige
gelangen
Sak
Finn
##zeichnen
Pfarrkirche
##boden
Spur
stat
##Rep
Krei
zusätzlichen
##team
mitgeteilt
Horn
Außenminister
##fle
##ogt
Erkenntnisse
##ileg
Tar
##etts
begehrt
schwarzen
gelassen
löste
Il
Austral
##hauptstadt
IX
##wettbewerb
Barcelona
##öll
beobachtet
##Sieg
Songs
Prinz
Stephan
##Ho
May
##logen
Projekte
##freund
Link
Schild
ältere
##ikon
hell
Magdeburg
militärischen
nachhalt
##Ma
Freu
sichern
Off
Kaisers
85
##entscheid
Archä
Pra
68
Erkrankung
Bein
##üben
##indern
##pla
Spren
Donau
ausreichende
##fähigen
Planungs
Geschichten
ter
##Vw
Braun
##isst
dat
Jacob
##zesse
Marie
Kurfür
##ächsischen
Ok
##dungen
Engel
Edward
feierte
Bestehen
##gelände
Krist
##oslaw
##redakteur
Ereignisse
##Gem
##demokrat
Darmstadt
##halter
##fahrzeug
##zustand
##rain
63
##able
belg
##stitution
existieren
rü
katholische
grenzt
ergänz
Journalist
Selbstschutz
##aker
Wurzel
##ungsantrag
Big
Gatt
##lösen
Boot
##gebühren
Mannheim
registr
##Film
kür
Risiken
Göttingen
##ößt
gefordert
Gegenwart
[]
##itor
##Co
##lagert
##cen
##ahls
##einsatz
##strahlung
nochmals
##veranstalt
geeignete
1500
Bert
##ci
Labor
Leichtathlet
Boch
hinweg
##amter
##druckt
##schnitte
##oz
äußerst
tatsächliche
Architekt
kämpf
##heber
##pflanz
##gegenüber
Arbeitsplatz
##schäd
Gabriel
alleine
Indust
BVerwGE
entstandenen
popu
Eigenschaften
67
Kön
promovierte
##auten
##gelegen
wirtschaftlich
##anbul
##aka
##pal
##otor
verbrei
##wechselt
dürfe
Herbert
##stufe
##splan
amt
Verf
##zeigt
mündet
Vertrauens
##isa
aufmer
Organisationen
Investoren
07
StGB
##hochschule
##kür
hum
Halte
zumeist
Prüfungs
##ido
##traum
1890
##ettel
verabschie
Börse
##zep
gefert
##geordnete
Anfecht
Quartal
##ves
##macher
##eting
betonte
zufrieden
offizielle
##vard
erfolgreichen
beantragte
1:
Ral
##ED
Grundstücke
Jugendlichen
##steine
##Cl
##perrt
##graf
##nüpft
##henden
##mord
Ski
glob
##vi
Auge
zogen
Vorwürfe
##Meister
Gegenteil
Weihnachts
Konrad
##schlossen
übergeben
##stes
##schutzes
Portugal
intensiv
Bayer
Gemeindegebiet
##RR
Methode
Schuss
einzig
kaufen
Terr
2006,
profession
Mä
##VP
##duktion
1909
##gerät
Sche
schlä
##berater
Kalender
##ausschusses
##ubs
Az
bewegen
Imp
King
##onien
Margar
Weltcup
seitens
Leib
Archiv
Lizenz
Vielleicht
Medik
erstellt
schwedischen
Schnee
Weimar
versteht
##ronen
Verbands
studiert
##Haus
gedacht
Mieter
##mete
RdNr
bewohn
sorgte
heran
Thüringen
schmal
##vermögen
allenfalls
Symbol
Alternative
Sound
getan
erweiter
Erlaubnis
wesentliche
##auss
gescheiter
2019
Dagegen
##ordnungen
kirch
Löwen
Theodor
Schlaf
##otischen
beteiligten
Zusätzlich
bewaffneten
Bestands
##orweg
Höhepunkt
Lös
Mult
Belastung
wichtigste
1904
leiten
##Team
##fenster
Michel
##kar
##verordnung
##brechen
700
##äußert
##onne
überzeu
entscheidend
##sive
dunkel
Que
part
Frucht
anzunehmen
##sph
Bremer
Ingenieur
dün
Inzwischen
Glob
Partie
gegebenenfalls
AfD
##pass
davor
Metrop
Touristen
##.000,00
Porträt
Aben
trocken
##brand
##bew
##pflichtigen
verfügen
Baut
Pflichten
umgesetzt
##freie
Analyse
##isation
##wirtschafts
##ario
##.2003
##undet
altern
##vorsorge
Tol
Schatten
vermutet
##-1
##jan
Neuer
brutto
Folgenden
Ri
Mars
Academ
Damals
Hochschul
teilnehmen
stattdessen
##ückt
##onischen
##ms
Gespräche
gesichert
##karten
liegende
##Sen
##rol
landes
##ppt
Zit
Baur
1860
angep
Vorwurf
##Gro
##einrichtungen
##Lin
Poly
##opol
Jub
Mannes
Alles
Hände
deb
Methoden
Zahlungs
Mittelpunkt
##maschine
Ursprünglich
Verbreitung
Beton
##rix
Zugleich
verhindert
Worte
##junktur
erfolglos
Schach
Angabe
##col
##zinssatz
Gouverneur
##arburg
##8)
Vorbereitung
##La
Diesel
##seud
Els
##ska
Therapie
Siedlungs
Rohr
##prom
Junge
Maße
Weibchen
##Stud
##ilber
##Mail
Details
##ged
Abgabe
##fertigung
Rates
##mie
befanden
eigenständige
Society
##agne
vari
1915
vergessen
Abgeordneter
##bein
Hals
Altar
Vorsitzenden
vorgesehenen
##metho
##jah
künst
##zwe
Eg
Kooperation
##mir
stehende
protest
##bescheides
##beschäft
##ous
##herrschaft
Darin
informiert
Flüchtling
##rechnungs
Verkaufs
##uz
Karte
manchen
Tourismus
Rumän
kleines
02
erbracht
geschehen
##For
lernen
Liebes
bevorzu
Historiker
entwickelten
gesetzlich
##cia
##liehen
Mary
##gelung
Seitdem
##gor
tut
glauben
Patent
gewisse
##gast
Blau
Zahlungen
##ero
##usk
südöstlich
##berat
diejenigen
konvention
Physik
##MA
Filmen
Konto
##pst
Adam
##aufnahmen
Europe
verhaftet
Vorjahr
##wende
##hler
Zut
Übersetzung
##yk
##elor
Pariser
Treffer
##,50
##material
Profess
##seln
Weber
Lob
Gebiets
Fraktion
##lar
##mutter
Gramm
##platte
##richen
##abet
1899
##korea
Center
gezwungen
Szenen
##begriff
##ythm
##tal
06
ähnliche
Herausgeber
##elev
##stellerin
##.198
##abschnitt
internen
##orenz
Gesang
##Sh
Epis
77
##erben
##ammern
##Zeitung
Handlungs
BMW
beseit
Mittelfeld
Lit
verdient
##era
Install
##bereitet
einfachen
Cat
vergleichbar
verzichtet
##klang
Latein
Tunnel
ggf
Preuß
ermitteln
spezif
##werfen
Davon
##oma
##wel
##quelle
englische
Verbindungen
gelte
Verträge
Eintracht
Niederlanden
Times
Instrument
ausgebaut
oberhalb
Heb
Brot
Positionen
##aiss
##ehle
##mack
##polizei
südwestlich
##isser
VIII
angebracht
roten
##mension
Nachbarn
saß
Istanbul
Handeln
##ugh
##umenten
##orrespondent
##zusammen
Buchsta
##atürlich
##mond
2005,
Sprung
##viel
Pod
schlechter
##lassungs
Beschlusses
Zeug
Apple
##trainer
##ulpt
Oster
##finition
Betr
##dies
##ammelt
einfache
erhöhen
verwendete
1870
Yo
Neum
##put
Wird
Wissenschaften
EuGH
##bereiche
verfügte
##stiegs
Englisch
Eduard
Hierzu
Wunder
Salzburg
gelingt
1916
Jeden
fielen
aktiven
##bro
##waffe
Orden
##teilungen
breiten
Handball
gestützt
verrin
##2-
Wettbewerbs
##/06
benannte
langer
##zieher
Trinkwasser
Absch
Schum
verkehr
Internationale
##ckel
Altstadt
denken
##Um
##entin
hinten
Mic
Anteile
##maschinen
##räsentantenhaus
Staatsange
##ladung
Laden
Schne
Smart
Rab
urkundlich
Umsatzsteuer
Infrastruktur
kämpfen
belegen
##legungs
##turm
Mah
Instituts
##ivision
schlechte
Kle
##entum
##dis
Mari
gefährdet
##ikte
Benedikt
##Anlage
##beding
##Ph
##gibt
##preise
freier
##Nieder
##spräsident
Arrondissement
##rel
##gewachsen
abschließen
##räuch
aufmerksam
Slo
wichtiges
Dank
Smith
anzuwenden
NA
Notfall
vollstreck
Gemeinschafts
Branche
##Bes
behandeln
Datum
Jedoch
Greg
Abwägung
##eiler
Religions
##ßer
beinhal
##machen
##vorstand
Herzogt
1901
Freis
leiden
mehrmals
effekt
##ckte
Oberverwaltungs
##ärte
##ehrer
##betreiber
##ador
Kassen
führenden
##sprüfung
ergänzen
geschickt
selber
##Sport
Schei
Äm
Erklär
unstreitig
Leopold
Maßstab
teuer
Arme
Somit
##ergebnis
##telle
##ordnete
##schlüsse
Verjähr
verlieren
Wirtschaftsk
Bogen
##imir
##beziehung
##ordneten
Jahrzehnte
##EC
rasch
Tübingen
verurteilen
Digital
Grundsätzen
##Star
gezahlt
##vereinigung
gestellten
Lar
nordöstlich
Betriebe
##aiser
Still
verbleiben
Gymnas
Mitteilung
101
festgenommen
Premierminister
##Br
Kräfte
beanspruch
XII
2004,
Töchter
beschloss
##Ro
##osa
##jo
IT
##otball
beeinflusst
##tor
##interesse
Verhaltens
##ques
fertiggestellt
VG
Press
Vizep
##Fran
Science
##apel
Denkmalschutz
rechtmäßig
Ihm
met
##führungs
Komponist
Fam
Franzisk
Gei
##örg
##leihung
Zucker
gesundheit
Bauch
##otische
herausgegeben
##let
Masse
Räume
Stimmung
##asien
Astron
Mangel
##führers
zeitgenöss
##erkt
Felder
##einrichtung
Ener
Magazin
##itim
##angebot
##emp
Zuschau
Austausch
Beispiele
Investition
Unterschiede
Ax
Bald
Grafschaft
##entlich
dreimal
##dienstes
##hob
vierte
Ereignis
##utete
Doktor
Überra
Erwägungen
eigentlichen
Niveau
##unfähigkeit
##TL
Flag
Fortsetzung
erlangte
Vorstellungen
Blan
##ctor
Gerichte
desselben
##elli
##olen
##wann
Orient
längere
sichtbar
Fertig
Jesu
##geordneten
generell
1903
getreten
abgerissen
retten
##erte
Neur
##BVerwG
##pression
Verteidiger
Tha
##rest
result
##abilität
Angriffs
Glocken
##äck
##verk
Anträge
##ftiger
##zeichnis
##FC
Kontroll
zwingend
Präsidentschaft
sicherzustellen
derartige
##ueller
##russ
Ruhr
Baus
lasse
Apost
Schott
Abschied
##stuf
Betreuung
öff
##drängt
Würzburg
##ssitz
##gier
##anst
diskutiert
##kommun
vertrieben
##ogan
Brücken
nordwestlich
schwei
##karte
ergab
Fahrrad
Ägypten
##verteidigung
Basiszinssatz
##DAP
Fab
Müll
rechtzeitig
##Druck
ändert
Sängerin
##Über
##sse
geschlossenen
##idar
##eitungs
kaufte
daneben
gemessen
übernimmt
61
Stufe
Finger
##Platz
Instanz
Daraus
##förderung
vorzunehmen
##grä
##rüstung
Schreib
Bistum
##spektive
Schicksal
##runden
Solche
bestritten
##rut
Bulgar
Prognose
Sperr
##werbung
guter
Bio
1902
##formation
##kommission
##schenden
##Jahrhunderts
Verbesserung
Amateur
##prüf
##uhren
##üssig
##hälter
##schrau
##paratur
Reiter
Empfehl
03
##weiler
Briten
##waren
And
ol
##teln
Soz
Klosters
##gypt
Manche
Veräußer
##zulassen
##asten
Verbrechen
##fehls
dram
krie
bezeichneten
##orb
##klage
Irland
##kern
innen
Pok
Tot
achten
Abkommen
72
positive
liefer
##beteiligung
Einwohnerzahl
Mid
Pfarrei
traditionellen
Bele
anwend
Lange
Sachen
Amster
##BGB
Kie
Spaß
Befreiung
angewiesen
Gerät
10,
Bush
dauerhaft
womit
Ferien
Kriegsende
##leisten
##monat
ansonsten
##herapeut
Lam
##gebend
Kader
Bundestags
##unc
Law
Sec
Rats
erbr
Missbrauch
Ministerium
theoret
hilft
gelangt
struktur
Beschreibung
alter
##weil
Berechn
##hängigkeit
##bergs
enger
##ebene
Territorium
Verluste
Kontra
Grunds
Wirksamkeit
FGO
Redaktion
überschritten
norweg
Peking
1848
##holm
Sir
##ritter
Kaffe
##aufwand
Stadtrat
Lands
##telligen
##IC
Alarm
jüngeren
##änomen
enttäu
überprüfen
transport
##GmbH
lokalen
durchsetzen
##schulden
##fo
9,
Hem
Erhalt
ernannte
stammte
Bundesamt
leg
bewegt
Sollte
##Amer
##inent
##roh
##besitzer
Verletzungen
§9
##holungs
Mitteln
Beratung
Arbeitsmarkt
Probe
##familien
beschäftigte
häufiger
##posten
##dat
Bomben
gefolgt
East
##rachten
Association
gefragt
Einwander
##Gesellschaft
Abstieg
##anie
Mak
Lake
##streits
##instrum
##streifen
gefördert
##alteten
##geboren
##yan
Niederlande
Pokal
##BM
Konserv
1880
##olo
Maschine
Behauptung
Betriebsrat
##GG
##Mo
##raums
Funk
Roth
Bischofs
gewissen
Cr
Absicht
äußerte
##ungsvertrag
##mung
Kim
begeister
##erve
gewähren
Berichter
Adel
Mängel
geprüft
Regionall
##rein
##marsch
##verteidiger
##xtrem
kürz
event
Jahrh
Stationen
Straßenbahn
##ogramm
##betriebs
##wendet
reden
##herein
Ross
Erster
Bildhauer
heißen
Zuletzt
##strahlt
Dienste
##hü
Bedürf
##innung
Strafe
##All
Modelle
Ausstattung
##sturz
Tank
install
##büro
aaO
able
Erich
Zeitungen
##behalt
##sverl
Strand
Katastrophen
##Sta
##iot
##öger
interessiert
Kalten
##reibungen
bildeten
entsprechender
Ordens
##gutachten
##Form
Lieb
##gängen
Geschw
Mailand
besonderer
medizinischen
Prim
Rücksicht
##eilung
##well
##ault
Brut
Julius
##schiffe
gedreht
##beitrag
##verhältnisse
##läre
##athon
##itels
##unternehmer
selbständig
österreichische
Rent
##hans
erzielen
Angehörigen
Seg
##chtet
Oliver
Rend
##lechter
##aufsicht
widmete
Cann
Brown
Äußerungen
##schall
##arbeitete
Assistent
##banken
fortan
Kul
##mert
##ova
Sorge
##andten
##ennzeichnet
3000
##ransport
Krim
##asch
Mei
##grenzung
##hleten
abgew
Schwarzen
##icherheits
##kamp
Mercedes
ersetzen
beher
unzureichend
##gru
##ämpfung
Barbara
Pel
##ächte
verzichten
mobil
Gewässer
##hrop
Erschließ
Sy
Clin
Anklage
Rz
##hmann
ausgebildet
bezahlt
##umin
##sendung
Bereiche
unterlag
Lust
meinte
Manfred
##ungsverhältnis
##planung
Landrats
übersetzt
bewertet
##jenige
##ativer
Belange
Stattdessen
umgebaut
Hinsichtlich
##sz
##üstet
##auftragte
relevan
basiert
##ausstellung
Friedens
Gö
Griff
Anbieter
Sanierung
entscheidet
erlebt
Pierre
##üler
Academy
eingeschränkt
Monte
##utzer
richtige
Natürlich
Ev
Normen
Gesetze
begangen
##ages
Telekom
Kathar
British
geringe
Infanterie
Rol
Genehm
ausnahm
She
##ness
Anpassung
##icherheit
##lieferung
##CSU
fern
##usstsein
Edel
Element
Fähigkeiten
fordern
##issions
sowjetischen
##IP
##sicherheit
Stücke
##ündung
##gerichte
Hamm
##lasten
bezahlen
Town
##nacht
rief
##verständlich
Mitgliedstaat
Wehrmacht
Derzeit
Eng
##idenz
Pas
##vereins
Dritter
##ildert
##wertungs
leichter
##gliederung
Botschafter
Williams
schriftlich
gelangte
##worten
konstru
##büt
Wettbe
Häuf
vermag
zeigten
Beachtung
kä
##."
angem
us
Riesen
##don
##onto
Abzug
optim
voneinander
4-
Mengen
##lla
Premiere
Fur
##zeugs
##iro
Nar
##kran
Indiz
Wellen
freund
Christen
Kupfer
Jud
##US
Merkmal
denkmal
direkten
verliert
außergewöhn
verbessern
richtigen
Behandlungs
BR
##kenntnis
##omöglich
Past
Merkmale
Francisco
beschädigt
##ainer
##ühungen
##risch
versorgen
##arke
##enseits
Stärke
stelle
ehrenamt
Lor
1850
##bestimmung
##ussia
Schlei
expl
versicher
erläu
Aspe
Nachricht
einstweiligen
Promotion
Rechtssache
IC
##vertrags
wählen
vorder
Kompl
Eier
##bour
Sowohl
Geschwindigkeit
spezielle
Columb
Beste
mm
##tin
2:
##iene
##gäng
Beat
Siemens
Gewinner
##belastung
##syl
##Nord
##lenz
fördern
##plätzen
##steile
Nomin
Santa
unterstützte
Alben
breite
##chan
Wood
Grupp
XI
Würdigung
überlassen
menschlichen
##zins
McC
Landtagswahl
Investitionen
##agten
##ugoslaw
Signal
fert
Koordin
Betroffene
Bundestagswahl
lösen
Commun
##ierender
Bochum
##ließung
##aissance
Register
##gelten
##pack
(§1
städtischen
Versicherung
You
Penn
##lück
Bachelor
Anschlag
jüdische
nachträglich
##bevollmächtigten
Ut
##drohung
##höfe
Amtsgerichts
Fels
##zurechnen
Plast
Asylbewerber
##hamm
etc
Alexand
abstra
Krebs
Grundlagen
##igar
##lebens
Gemark
##reut
Römer
##verbindung
bedroht
Ferr
##BSG
jetz
Beleg
1898
Ermittler
##ube
Männchen
##hebt
politischer
##förmigen
Sign
##stermin
##aria
95
Wirklichkeit
erfolgreiche
Scott
Grem
feststellen
##kräften
platz
Ausführung
##hungs
schlägt
Dynam
Kohle
##KA
##erz
Zentralb
##wände
##amente
Konf
##oul
##alit
Cam
##feind
##,"
wirft
Zuschauern
angegriffenen
##isl
Rap
garant
erleich
Seinen
Stadtgebiet
Gewerkschaft
##tags
##meldung
einsch
Bam
Abgaben
lan
##izont
Anst
Bisher
krank
mache
beschließen
##schützen
##Grün
##genannten
##ugies
##dorfer
Rostock
solange
Haar
liber
##gespielt
gestanden
##hier
dicht
gelb
##altar
##orpor
##astet
bestellt
fehlenden
##Jährigen
##jon
Rub
Knochen
##usalem
wandte
##gefangen
##hart
§11
1896
##ariat
Kell
Diagn
##lech
wusste
##orff
##alyse
##ungsbereich
vorerst
türkische
##idae
Enkel
##ope
##tretern
##recken
##fsweise
Auszeichnung
##teilungs
Bundess
Hunde
Gebühr
Südafrika
##hilfen
leer
unters
diverse
Zä
militärische
##stanti
##kreisen
Beihilfe
Veränderung
Entsprechend
inszen
Strukturen
Coll
##ächter
Betrachtung
produzierte
##läufig
kritisierte
Ped
##lefon
freilich
herunter
##weiß
##version
Schiffs
##mod
vergleichsweise
Has
Attent
##inz
##andeur
Reste
änderte
Konzeption
Anfangs
##schild
feiern
##iteratur
##forscher
vergröß
dahingehend
verwendeten
Pause
vereinbarten
##fassungsgericht
Ortschaften
vorläufige
Fernse
tiefer
##aal
Felix
Tabelle
1895
##ildeten
reagiert
Rail
##sprachen
vergangen
##tä
gefangen
schott
angrenzen
##fähige
##zemed
gewün
##lab
Oran
attra
##brück
Label
Versicherten
diesbe
bedient
##ständigkeit
##aga
##amentlich
##erung
gutes
offene
Spieltag
illeg
##03
Künste
##ofern
reichte
Kindheit
##otograf
##ikum
BvR
Ecke
##verkauf
Branchen
Gefü
Zeugin
einheitlichen
##alerweise
##stätigkeit
##nr
aufnehmen
rechtskrä
##oni
##vens
##lasse
Erstmals
Plänen
##Beschluss
Vorteile
##hlt
##herstellung
Trainings
Potsdam
Technologie
##ieber
voran
kap
Bündnis
Aktie
det
gefeiert
##rufen
streiten
Unterkunft
Bres
subjekt
Arzneimittel
Albrecht
raus
reiste
direkte
pausch
gemeint
heiligen
lebenden
meistens
##samen
Benz
Hammer
Distrikt
Kontakte
kompon
eigentliche
Verkä
Dörfer
Speicher
##deutschland
Wahrnehmung
Riv
famil
##betriebe
Interpret
##nd
Corn
Nahrungs
Well
##nutzung
Eingriffe
Innerhalb
##bene
Tob
Cra
verbind
dest
KZ
##legende
erhöhte
Bauer
symbol
##bal
sonstige
##auffassung
##lein
##bindung
##antie
Maur
##einigt
NSDAP
Handlungen
Urkunde
##gemacht
##ugt
Lee
stärk
##anischer
engagiert
Kohlen
gefahren
Dur
behinder
##Mag
Nein
Kilometern
notwendige
sorgt
bekanntesten
##ickte
Reh
Frie
klingt
Helm
##fahrzeuge
Stars
##.2002
##ütt
Rak
Vertrages
##rechtlicher
##reste
##bald
orig
inneren
Tiefe
##AS
##ynast
Wohnsitz
##verantwort
Rechtsstreits
Leichtathletik
Claud
Realität
##ito
teilt
wirk
genutz
Londoner
%.
Rauch
##Politiker
Amsterdam
befest
isol
##achse
##könig
Künstlern
zusammengef
Kok
ei
Gehalt
Alp
Las
unterschieden
##semester
Webs
##stoffen
Messer
##Com
rum
Links
##füllt
##versicherungs
Mond
Skla
Sechs
Oberfläche
Berlins
funktioniert
##vas
erneuten
##kin
##frü
##nischen
Net
Arts
76
##hain
##mosphäre
Schicht
##ners
Nicol
Arthur
genaue
EZB
##atter
vorgegeben
Gesellschaften
abermals
aufeinander
##ns
Bull
##klusive
beurteilen
halben
Offizier
##eigentümer
##gebirge
##üre
Kai
Dritte
Skulpt
unmöglich
VGH
##archiv
erarbeitet
##gasse
Micro
Gedenk
kostet
##istet
fehlende
Antrieb
##ikas
EG
##wall
unbekannt
##anträge
betreut
##yc
##stift
Ford
syr
71
Nick
we
Stol
verursacht
Mr
Jün
steiger
eingegliedert
Luxemburg
##brem
nutzte
##TO
Bronzemed
##ütten
strateg
##feuer
brasil
schwarze
##07
##hai
##feier
berichten
##WM
##kette
genauer
##gg
##helfer
Dorfes
100.000
vorgeworfen
christlichen
##zulegen
Kriminal
insofern
##uble
78
Aqu
Ot
streitigen
##hüter
Bour
angewand
##hold
herbei
Eil
bloß
Räum
##unfall
##Fest
Bade
voraussichtlich
StPO
##sprüchen
Eig
Fro
##igsten
bewill
Halbinsel
Armut
##At
falls
Technischen
Soph
##sextrem
Konkurrenten
Schulz
Venedig
74
##ology
##illerie
Kommando
Also
Kardinal
gewannen
überzeugen
##ympath
angesprochen
##Fahr
##verd
zivilen
Int
kommer
jeweilige
automatisch
Installation
##svertrag
Kühl
verpflichten
Hügel
mittlere
##ürzte
Blei
##ardo
Fusion
##aufgaben
schlechten
##uay
Tru
sinnvoll
mod
1897
akadem
##verbrauch
Millimeter
errichteten
herangezogen
Definition
Final
Einhaltung
##öpfe
siehe
beruhen
entworfen
real
##Alb
Deut
##ehren
##alom
73
beobachten
Brunnen
vorrang
jahrel
starben
Abstimmung
beraten
Hundert
##ienz
##ansprüche
Geschehen
Ray
Größen
##reichung
Sens
##konstru
anschließenden
Luxus
##Europameister
Argentinien
Siegen
Kommunen
geöffnet
Formulierung
##/16
##archie
Festlegung
Vize
Spenden
PC
abend
##asp
Bildern
##verlust
##eitigung
##utbar
##ieht
Wäl
Jones
Einspruch
##vide
##rechten
befasst
Patri
Jena
##Jo
##hedr
##fache
##ömm
##folgung
bedeut
umfassende
Tageb
##durchschnitt
##äfts
Lew
LB
Regelungs
Rumänien
##mor
##arta
##ioren
Bernd
zustande
engagierte
fragt
##bleiben
portugies
Infl
Legen
Mario
Neuse
geprä
France
##geschlecht
Heck
Schülern
##Th
Tirol
##festsetzung
Football
Hauptrolle
Küche
##verlauf
##zylinder
Malerei
Borussia
glaubhaft
Erwähnung
Effekt
SozR
##ituationen
Zell
Eigentums
##lässt
##Konzern
##Cup
verstorbenen
##uver
##greif
Jörg
gemeldet
Prü
##Schule
umgew
Distanz
Ethn
erlebte
verstoßen
debüt
bedeutende
Cur
minder
Demnach
geleistet
##Stiftung
Kanzlerin
##ozi
Wis
##ichen
1871
Konstruktion
kommerzie
Investment
##gige
Koblenz
gestern
##fung
vollständige
5000
Europä
##dichte
Duis
Prozesskosten
nächst
unwirksam
Vern
Pension
##osex
normalen
Sul
Aufsicht
##seitigen
wöch
Exemplare
Hang
Dublin
##liegende
##stitu
Jäger
beigesetzt
Landkreises
##ray
##ydro
##ühmt
Bundesinnen
britischer
##vorsitzenden
Bargeld
Gunsten
Fan
Tun
Twitter
Mittelmeer
geschul
Aufsichtsrat
unber
Normal
dokumentiert
##owa
Betriebsver
##ript
Mechan
Tokio
##ibil
natürlichen
ukra
Auß
Heimatstadt
##wein
Serb
Erwartungen
##reisträger
Thron
Reichstag
grundle
Amtes
Kandidat
äußeren
##tere
##wälte
Krone
##entwurf
##Pol
Loch
##loh
Freiwill
vermittelt
Zeitschriften
##vö
Seen
Telef
##branche
##zession
##ree
Schadens
fürs
Wester
materiell
versuchten
Neun
Tatbestand
##versuch
96
##fuhr
Erscheinung
##winkel
##risiko
Mineral
(6
##post
Cru
Liv
##oir
##rektur
beenden
##elie
##weihe
ausländischen
vorgeschlagen
##05
Gesichtspunkt
Kür
##denkm
Becken
Ful
sehe
Jerusalem
Heeres
Beratungs
Bevollmächt
##rechter
Becker
##widrigkeit
stattgefunden
##hängen
erfährt
Arbeitgebers
arg
Frankreichs
Konsum
ausgestellt
Wart
##ello
Friedrichs
betreffend
##stiegen
##odie
##unterhalt
umfangreiche
Tay
vornherein
klin
Leipziger
##praxis
mangeln
brachten
iS
Gehör
##gements
##eldungen
Doping
Maßstä
wenigstens
herrscht
##gener
##uerei
belieb
Nachteil
Blumen
##akon
besseren
Arnold
gesperrt
##imp
setzten
vielfält
##/05
##gäste
2003,
zweites
Regensburg
##urlaub
Reiches
Haushalte
gewährleistet
Besatzung
komment
##igste
Gör
Extrem
##maler
Freunden
##zeichneten
Viertelfinale
zurückzuführen
Zo
Kund
Stürmer
Amb
einzelner
Null
stattf
Verbreitungs
befindlichen
##issionen
##Bundesliga
##AF
Ret
##trieben
Glaubens
Dialog
Chron
Laur
erkennt
bloße
trag
##maßnahme
erzeugt
##skirche
##ids
##leut
Verk
syn
niemals
##weilen
Putin
schien
Ausgleichs
##kassen
geweiht
Rechtmäßigkeit
##inos
int
betreiben
Änderungs
geforder
Pic
Major
##ulierte
##ausgaben
gekennzeichnet
##hodox
Yorker
festen
beliebt
zusammenge
##4-
##estra
##delte
1893
Mehrere
##hab
Flan
Reparatur
##derten
Entlassung
##anspruchnahme
Erwerbs
##abschluss
geleitet
##politischen
##ritts
inhaltlich
Komponisten
führe
ermordet
##riffen
Früher
ähnlichen
grundsätzliche
##listen
Inkraft
##üß
##schull
beklei
88
Are
Keine
Spekt
zeitlich
Rainer
lande
##randenburg
""
Absol
sodann
##mangel
Boston
Systems
Prozentpunkten
##inuier
##alth
§13
Viol
Handy
Angelegenheiten
##umph
Verlags
##Dem
Mang
##geschicht
##kündigung
##lausel
##Ost
Harry
States
Meinungs
Blo
fungierte
Gil
##gesetzbuch
Folgezeit
Freude
Krisen
##_1
Texas
Glücks
gekauft
Fert
Nachlass
wahrgenommen
##gebietes
angehör
entscheidenden
VO
Schwimm
angestre
##Ad
##kapelle
sechsten
Schil
bestimmter
##Tour
ermittel
##osse
japanische
Paläst
begrenz
Kinos
spanische
Trauer
Händler
Gir
Langen
evangelischen
Empfänger
Institutionen
restlichen
Kapazitäten
nation
##aßen
gewinnt
##meisterschaften
##Werk
Trier
Hut
Pseud
##förmige
##ili
§15
##He
#
News
weiße
##AN
##:00
Bäume
Sportler
Dokumente
##redaktion
Angebote
vorstellen
einher
finanziert
Gegenstände
hielten
Arbeitsplätze
##rent
##ason
mitten
##Ter
Studiums
eingeladen
zuzulassen
namentlich
traditionell
##08
Alte
gefasst
##grundstück
##ländischer
Röm
Auftraggeber
##pause
Helden
##eutnant
gerechnet
drän
Glie
##mechan
##Man
bezeichnen
klassische
Act
Erdbe
Hugo
Spiels
Werkstatt
unseren
eingestuft
wunder
##ignal
##zahlten
AT
Opel
Hilf
Ensemble
##ikern
fühlt
Mans
gezählt
Bahnhofs
##sächsischen
Ausmaß
##parks
Fassade
kombin
Dresdner
ordnungsgemäß
Sekretär
Ga
typischen
Som
Inse
##lättern
Mischung
Feier
##oli
##litz
##warf
Ts
##eistungen
Wohnhaus
betrieblichen
##sprachige
Jedenfalls
##yz
##bellen
Volkszählung
Leder
Schwein
Phänomen
##Teil
Kanal
##reife
themat
Netzwerk
dänischen
speziellen
Kel
##verwalter
gegenwärt
##nütz
geäußert
zwangs
denkmalgesch
verlegen
dauert
##:201
##Recht
##ulden
Inneren
Vergleichs
##Mon
##gleis
##manager
Hallen
##otiv
Runden
Taten
##aya
##eta
Klim
Diöz
##studien
Luther
##klen
schriftlichen
##echter
Einigung
erlitten
##ivals
##verteilung
##denkmale
##fahrts
Befra
##rekord
Günther
berühmte
erledigt
Eta
##marke
Nachmittag
##bä
aufgeb
gewährleisten
##ads
##ovo
Überleben
Konjunktur
##zeuger
dienten
Tauf
Rande
CO
NVw
Oft
Baugenehmigung
Vul
fakt
erhobenen
##Prof
Knie
maxim
##vorhaben
geschätzt
Gü
##atus
##bares
samt
Binnen
Route
Lern
Genau
Scha
Biele
##Vorp
##Bei
starten
keineswegs
##mern
Laub
Berichte
integriert
schafft
ann
Konzerte
Darlehens
Innenminister
Erf
erörtert
##ühlen
Human
junger
##schaffung
Mach
Wiederein
##uts
Württemberg
interpret
aktive
Index
Richtigkeit
Mühle
##ogn
Goethe
Verurteilung
Stütz
Soldat
##asa
engen
Verteilung
Virgin
Bauwerk
ausreichender
##aks
11,
korre
demonst
fikt
gefährlich
Vikt
Ausbruch
##antin
##ähern
##prinzip
beinahe
preis
womöglich
##eigung
Staub
Ausscheiden
Metz
debütierte
Ky
ök
umso
Berecht
besuchen
Maximilian
religiösen
##organisationen
Abbau
##gebunden
unterliegt
umfassenden
Such
##tau
##ladbach
##quellen
##ständiger
kaiser
ausgestrahlt
Klagen
beruflichen
Konsequenzen
schn
meldete
Rechtsbe
##oppen
##ähren
##drückt
jüngste
vorkommen
anim
Hochzeit
Aufstellung
Zulässigkeit
Anbau
##ächtnis
Christus
##bundes
##ete
##nab
##alismus
eingebaut
positiven
Abfall
Tieren
Vordergrund
erheben
##bec
##läufe
##zirke
abgebrochen
Inkrafttreten
dis
deu
1892
Inf
##hängt
kanadischen
Hass
Baron
##zentrale
Vorfeld
einver
nutzt
leider
##stechnik
##acken
Kun
##iments
Urlaubs
ehemals
##BVerfG
verlang
##Haupt
##storben
trafen
##oire
Sturz
Senioren
##sverhältnis
verzeichnet
sahen
auszulegen
##RK
Äl
anlegen
Juris
beteiligte
Hung
Hagen
Heide
Kantons
regionalen
objektiv
##kov
Finanzminister
bezog
nachge
##schließt
Abm
##kg
Orch
Synag
organisierte
##stöße
aufweisen
##EL
##ietung
Partien
Nikolaus
lehrte
Konstant
##becken
Jar
Dire
##anze
Dou
##üsten
Berge
Spielklasse
##Su
##ingu
Hay
Erben
##angriff
Ursprung
mo
Bevor
weiten
vertritt
Inanspruchnahme
##feln
##fahrung
einbezogen
##lach
fehle
erschossen
Quadratmeter
##flex
ausgelegt
350
Pion
Anzeige
beschrieb
##hlon
Einzug
Priorität
Geschichts
liefern
Versuche
unterbrochen
Umzug
begrü
Moritz
Südwest
Ero
Liebl
##atorin
##portal
bedingt
vorzubereiten
##irchen
##zeitschrift
Hob
##illen
##ausgabe
vielfach
Zie
##leutnant
##geschäfte
Sachverständige
##BB
##itee
##anni
##hafter
Wiesen
##politische
ww
##tausend
Haftung
problem
##Vert
##Fraktion
Anstieg
##formationen
Währungs
kontinuier
www
Budap
erb
ausgeübt
Toren
##zentrums
##arett
schlossen
eingeweiht
Piloten
##grundsatz
##gesagt
natürliche
Rechtsan
Fu
§14
Spielern
ausgerichtet
##iness
##gow
Satell
dauerte
Wach
Händen
##völkerung
Gon
##erium
1894
Galerie
##etwa
größtenteils
##fektion
verwirk
##New
Agr
zusammengefasst
##gerichtet
##ladimir
vorbereitet
##plomat
nationalsozial
do
##ctic
##ustr
Schein
Klärung
schlagen
##berechtigt
abgelöst
##steuropa
##älte
steckt
gewid
wiederhol
trans
Festung
ausgelöst
erkran
Angehörige
Caf
##angaben
Stufen
Urheber
Härte
##mittels
##ahme
##Wil
1:0
Valle
Befrist
Abgeordnete
ethn
Motto
##komplex
Ausgangs
freiwillig
##luft
##quid
Onkel
Wärme
ökonom
finn
Roland
Bescheide
##drom
##präsid
##sbruck
##TS
Sind
##ementen
Widerrufs
Olympias
Ungleich
Lebensjahr
##mö
##leib
Sorgen
##mas
##aufent
##ifest
beinhaltet
##alin
Jury
Gedicht
anderweit
##adi
##Vorsitzen
amb
##ypen
1.1
Obst
gefertigt
##räder
1885
Napole
richtete
schlicht
Kindergeld
##schel
##ennungs
Porsche
Vereinten
ank
Lübeck
Nachkriegs
##mil
verläss
Nachteile
99
hört
Linden
Patrick
Stipend
einziger
##konstruktion
hom
stür
Winkel
##kreise
##zeitraum
White
Kommunikations
Viet
entdeckte
##oldungs
Spreng
gefär
Günter
##-1-
##regeln
##äle
NVwZ
##istanz
##Don
Allianz
##Vorpommern
##rus
##wirtscha
##wohnung
Zauber
geschafft
DVD
Hed
Veranst
Renaissance
folgender
Baby
##arisch
Legisl
hilfsweise
herab
binden
Beschränkung
##tagon
##inderung
##ußern
1800
zweck
Betrages
##Arch
##aster
##kol
##pool
##ätzungen
##ody
wirks
Meisterschaften
##Mana
RTL
##management
##quert
klären
##behinder
Verzicht
siegte
BN
Auflagen
##OC
begünst
##ista
Erbe
Kenntnisse
##vern
##werbst
##Gemein
lieb
##passen
##etti
##hau
1889
##größte
Teils
##imetern
erteilte
##vorschrift
Arbeitsgerichts
##Vol
##bescheids
aufzunehmen
fried
doppelt
##national
restaur
Gh
suchte
31.12
Teuf
unverändert
Zusammenschluss
12,
Besatzungs
##deckten
Regionalliga
Bronzemedaille
entfallen
Student
##weisungen
Oh
Smartph
aufgefordert
##mol
spann
##lastung
Exil
Zerstörung
##findet
##iffen
Dachau
polnische
zugewiesen
Falls
##reffend
ausgewählt
##schießen
Grei
gesucht
Streifen
antreten
anwendbar
Überlegungen
Blätter
Häusern
Schulter
bedeutendsten
Witt
Sper
meinem
Redakteurin
materiellen
##örten
Kolonial
Bergen
großem
##Sc
Feststell
umgewandelt
##Inter
##gebenden
##HC
##mode
##figuren
Andererseits
##Plan
1888
##Programm
berühmten
##Syn
Neuseeland
Unterbrech
##rieg
Road
Profi
##DL
chinesische
Varianten
jederzeit
##sperre
enthielt
Milit
medizinische
unmittelbaren
##ätten
Hochschulen
Now
##basis
Tschechien
Tatbe
Bauten
Vit
Intens
##bergen
qualifizierte
##serien
Wesen
##suchung
Gemarkung
Vorsprung
Panor
Erziehung
Handwerk
Eth
Arab
Dissert
Auslands
##xid
##Pokal
diversen
Pfund
dringend
##omer
Witwe
enge
Ihren
sicherte
Vermittlung
##otential
Komplex
##rey
Mis
Favor
Samen
Erober
##äss
Finanzamt
sofortige
Lein
Klang
Interess
Reserve
##rohr
reform
breiter
##anteile
##zentren
Ernennung
leistungs
##vision
Einklang
warf
sterben
##ützte
nachfolgenden
##oter
Amaz
##männ
Staatsbürger
(),
##qualität
vorgeschrieben
Landesregierung
##beamten
Übersch
##ungsweise
Straftaten
inwie
Gastgeber
Erstattung
Ausstellungen
Bescheides
Bezugnahme
##bö
##produkte
Dikt
Ämter
Verwir
Innsbruck
Ale
Motorrad
verbessert
unterrichtet
##bers
Krem
falsche
##telt
dringt
Bebauung
Wiederaufbau
Rechen
##stufen
eingeräumt
Gur
zuver
Vermutung
##beschreibung
Ersch
Antonio
##pflichten
Schwestern
##anke
Fotograf
Bundesstraße
AC
Einfl
Tau
##jäger
Line
Andrea
Jackson
##vall
Feind
Internets
##anna
Dekan
##nehmlich
##etische
klare
##register
berechnet
##heitlich
Buches
##General
Ausnahmen
Konferenz
Einspruchs
##erne
##ührung
olymp
erwachsen
chron
##onenten
79
##schaden
Gestaltungs
durchgeführten
##chs
Angestellten
Hochwasser
##ores
##ölbe
##enhagen
vermitteln
entscheidende
##bu
##BGBl
Adler
Einzugs
Versorg
Sprint
vernün
##zessin
##hinter
##frem
eingemein
##achus
Leverk
Aufklär
Verschw
##inental
##ori
##iwod
##Con
europä
##hallen
##aute
##zucht
getroffenen
##MG
farb
Takt
##gh
##Drucks
##vertretung
##Kirche
Strei
Beförderung
Komposition
Opf
##ött
befreit
gerufen
##ES
Long
Anhang
schein
Mitglieds
##ediglich
##wesens
Bands
##tätigkeit
Durchbruch
##gerichtshofs
##/01
##ifa
##ulieren
##ynastie
erneute
##ania
##fläch
##bibliothek
Zentralbank
Freundschaft
australischen
Überblick
Eigentlich
Saisonende
Eines
vol
Zweig
Inhalte
##schreibung
##professor
fähig
##PÖ
Auftritte
##bayern
##morgen
desto
volle
erläutert
verteidigt
Nordamerika
##ampf
##steig
Nu
Naz
Funde
##yen
##Gymnasium
##vollstreck
entsprach
##bildungen
gewachsen
Hotels
wander
verschwunden
##mäh
##uld
##reien
##dukt
Ari
fühlen
##Kilometer
Einkaufs
##gegenstand
Vizepräsident
##raben
Auton
behalten
##IT
identisch
Beschwerden
Tempo
Unglück
Jenn
1891
##felt
1866
schöne
Pho
##eiro
1874
##spezif
anstelle
Waffe
Faktoren
Mittlerweile
##aki
##ush
Sed
##stellter
philosoph
Expedition
##bn
verbinden
##aph
hängen
Arbeitnehmers
Abd
##reute
##reuth
gesundheits
vorlag
Rückzug
##otter
Western
künftigen
Herzen
##ators
##bewahr
Unterbringung
Vieh
Kontext
Hex
§17
##aps
Rücknahme
##same
Theat
vorhandene
Kreises
erbringen
Versammlung
BB
durften
Abschiebung
Temperaturen
##Muse
##itis
##prot
##riet
Graz
Neustadt
##empfänger
beklagte
veranlasst
Joe
##tellekt
einzus
##pot
##RG
Fi
Leo
scheinen
Oldenburg
Abschiebungs
unterschrieb
##.6
Dietrich
##verbindungen
Jord
Jubil
##behalten
bewaffnete
Brook
Meine
##bard
##gott
##pläne
##atorischen
verdienen
##oro
##beln
Vel
##psych
übrig
Woiwod
Umfrage
Zigar
geringfü
##kilometer
##schwung
Schwanz
anhalten
##Bar
##emin
Nest
##Trainer
##ific
Bibel
##ifizierung
Moderne
kritisch
Entschädigung
##deuten
Erleb
Export
##beiträge
Systeme
Florida
Verdienst
##ormen
##üchte
Mike
Großher
auft
abschließend
emp
##haven
##bels
quer
aufgeteilt
länd
##imente
Julia
Vermeidung
Reinhard
Att
##bereichs
Sachverhalts
##zutreten
82
schuld
Wurzeln
verhalten
Krankheits
deutliche
##landschaft
verfolgen
Behinderung
Lediglich
Marketing
Prop
Grüne
##Ort
##gon
Ei
Leb
Barock
##etischen
Oze
Käufer
Treppen
Kaufmann
Erwachsenen
zufä
##ützten
Kommandeur
##ektor
Reichen
Verweis
liefert
Dal
finde
##ärter
Mini
bedür
evangelische
Dokumentation
2002,
Katharina
Verpflichtungen
Risik
Problemen
irgendwann
griechische
trugen
##lok
Out
##opfer
Profil
Statistik
##rtner
beacht
##garter
##regung
prim
Kaffee
Zuordnung
##bescheide
##serklärung
differenz
Got
Rav
Ura
##funden
Motoren
Finanzen
86
##stet
günstiger
##onia
##illon
Neuf
genehmigt
Kriegsgefangen
detaill
falschen
##rahmen
##kind
erlitt
##soft
eingezogen
Grundschule
wahren
##ädte
##ologischer
##vergüt
Petersburg
##wickelt
längeren
angepasst
stet
verteidigen
Gießen
##ives
Bundeskanzlerin
Juan
##würfen
reine
##voraussetzungen
sang
passt
##hologie
erzählen
beschäftigen
Honorar
##örderungs
##treffen
usw
Chris
Kleidung
Dorn
##VA
Syd
Temp
##bom
##saal
##ffekte
Pflanz
Down
Solo
Vorrats
glücklich
Manchester
holen
behauptete
Bruno
Florian
Rektor
beweisen
##teau
bejah
Johnson
gebeten
##RS
##obte
Dram
Eugen
Kampag
Unterhalts
gepf
Zustellung
##iban
halbe
##geschäfts
Sprecherin
erhältlich
83
900
Lichten
Bundesfinanz
Herrscher
Erdgeschoss
aufgel
##laufenden
Fahrten
ständiger
3,5
##ministrat
Vergütungs
Ausstellungs
##block
Dick
Send
##manischen
##RL
##phy
##schnitten
Buchstaben
Fahrerlaubnis
Inschrift
##äure
Clinton
##günst
sieb
Graben
beeinträchtigt
bemerken
Körp
archä
##essungs
Anfrage
niedrigen
84
##grupp
##künften
Säulen
belastet
Metal
##unker
##unnen
Explos
##ni
tour
##Rennen
Mandat
Ludwigs
##inson
##träge
##Projekt
##izieren
##gei
zutreffen
technisch
##dh
Benn
##0,00
Fertigstellung
##ides
Agentur
verlief
Finnland
Leverkusen
na
Cop
##klärt
radik
Ali
##lenkung
stimmt
##atze
flä
streng
Korru
ausgede
Immerhin
entscheid
Nutzen
italienischer
##HG
Pian
##zutreffen
Einschränkung
substanti
##ippe
Athleten
Kirchengemeinde
##ingham
##Bay
aufschieben
Jede
Marcel
greifen
Vari
Flüchtlingen
##izen
##umpf
Richtlinien
##dlichen
##städter
sk
Pav
Bemühungen
Anleihen
industrie
öffentlicher
Produzent
einziges
##bill
##braun
##lafen
Schatz
##loser
ständigen
##bisch
Plus
Comic
##stellern
##ungsbedür
mult
erhebt
po
##offs
kurzfristig
##hut
Roger
Schmuck
##gestellte
##itas
##FL
##abkommen
##höch
zeichnet
##ju
##hansa
Ausrichtung
verabschiedet
Allen
Materialien
0,5
Jurist
##club
Letzt
binnen
ungewöhnlich
98
##delten
Flugzeuge
##ahren
##kter
##onna
Abk
##jährig
schwach
ergänzend
##.2017
##ident
Rese
##systeme
gleichwohl
##refer
1879
##ualität
verschär
Anf
Rechnungs
Darstellungen
##liegend
überliefert
##cial
##shire
Reformation
##board
Strahl
##stad
negativ
1875
##PA
Fit
verzwei
enthaltenen
##sofern
Dokumentar
##rone
geschah
##betracht
geteilt
oftmals
Warschau
##inus
##aszin
##spital
Achtel
Verhältnissen
##niveau
##aillon
übereinstimmen
Hinder
Reserv
Einsätze
leistete
Wul
##linger
Rezens
##horst
fein
##Verlag
##eigert
##eschrift
##to
##fachen
##igan
Cle
dunk
Parad
innere
üblicherweise
##hemen
Planfest
Ausgangspunkt
ausnahmsweise
##sthet
prominen
festgehalten
##angels
##gard
Benj
Schienen
##waltungsgerichts
One
##utzend
afr
ausländische
##artikel
##laf
Hauptbahnhof
##schäden
unternahm
Besser
verlässt
##süd
##örer
herausra
orientiert
Wils
##idi
##üller
1872
Hong
Wales
bester
##schüler
Raketen
##ussten
##ographischen
##VI
Oberliga
Atmosphäre
##bereitschaft
##entscheidungen
1867
##NET
pat
Diale
1887
Love
Denken
##Techn
merk
01.01
lit
mat
##Famil
##sylvan
bestätigen
##berge
Spons
Vermitt
ausweislich
unmittelbarer
Guts
1884
Vertretung
Vereinbarungen
##Bank
Blues
spekt
fragen
Beding
Dessen
##cer
##flüge
81
stre
##Bund
Corps
##einnahmen
Abenteuer
##Akt
##Frei
##gemäßen
eigenem
kürzlich
##eman
Welche
##stätigung
Phot
Überein
Ty
wählte
Abgrenzung
##ärzte
rechnet
Pin
Lufthansa
##zepte
Uwe
Rose
Budapest
Bergbau
richten
schlimm
Kopenhagen
Schöne
glaube
fließen
##reifer
Walt
Erklärungen
Entwicklungen
##antes
Tatort
##Is
##ammlungen
##dra
bat
Duisburg
gescheitert
ents
##rennte
Fehlen
##ifikation
##bevölkerung
Vi
##Erst
Konstantin
Kong
Auftakt
Sz
potent
genügend
abgeleitet
##schwei
Abwasser
##imes
Seele
##verfolgung
griff
Talent
höchstens
##gelegten
Schalke
Power
##oe
##ami
Solidar
##öpfen
Henri
inspir
Dreißig
##grafen
stil
gemachte
Lehrstuhl
##ruder
Trocken
Sitze
aggress
gründeten
Vorgang
Microsoft
Sanierungs
Verbindungs
##EM
Befehl
##Deutschland
Dissertation
##ymmet
##stem
Lan
Marx
##temperatur
Erstatt
Begriffe
##zit
##here
##kurr
kämpfte
vorliegende
Besonderheit
Gutachter
Beteiligte
einschlägigen
Seehofer
Bielefeld
Stellvertreter
##League
Vertretern
##ämme
Löw
Report
Beträge
##zifik
Konstru
Steiger
Gottfried
rechtfertigt
##amo
Zwang
rumän
Marburg
Buchholz
##Sk
leichte
Kugel
kraft
##ikten
##istum
Beine
erwiesen
Medaillen
Befür
Bewilligung
Ausgestaltung
##fraktion
konsequ
Hirsch
Fußgänger
stieß
Schottland
##fers
Jens
##wahrnehmung
ihrerseits
Stuttgarter
Zir
Nad
##bury
God
##Bau
##kanal
übers
Liss
vollkommen
Starn
Charts
##leiden
datiert
##Ste
Vent
Bundest
kg
##ovon
erhaltenen
eingeleitet
rote
##folgenden
Magaz
mündliche
bedeutenden
Insekten
##Ob
Atem
verändern
Daim
##redite
##werker
##ächtigen
diplomat
jenseits
versorgt
Sozialgerichts
##Hein
§30
Grim
herk
künftige
mex
1815
Nato
Erle
scharf
##zelle
Peters
sens
moral
verfügbar
Kann
realisiert
##loch
##spannung
##achusetts
Kaufpreis
Lord
erfuhr
##wachst
Arena
##ertal
Pfalz
exper
##ränkischen
Research
##fälischen
vorgesehene
sinken
argument
Aspekte
Begegnung
##üse
##Fil
Typs
##iziner
##02
Veranstalter
##stärke
geliefert
##öpft
Laufzeit
Erhaltung
##bat
Fok
Häft
Erfurt
fotograf
##boot
Flu
benannten
##ingenieur
unterteilt
##vey
##raf
Gehirn
##antischen
Einnahme
##rüger
ausgerechnet
Neg
§154
Schwie
##ankt
##ehme
Aur
##Titel
##Rad
Büchern
##ava
##räglich
##pflichtige
internationaler
##Ind
Abstamm
Reporter
Synchron
bewerten
##eidet
mont
Nichts
Ohr
##ronik
##schee
qualifizieren
dir
##befehl
ungew
Gedichte
geg
##bronn
jährliche
Säu
##brochen
my
##apelle
##sylvania
##rian
92
##irur
##Wer
##ränken
abgestellt
Arbeitsvertrag
##oko
Bag
männlichen
widersp
##mers
Wachstums
erklärten
Einbeziehung
##renzung
Beschäftigte
##ee
Force
##owitsch
Sky
##hedrale
derer
Einkommens
aufgewachsen
hob
Fett
##inten
Zugriff
gerichtliche
##esp
##hip
##hop
1868
typische
Uni
Mall
Rüst
91
teilen
lautete
Ursachen
bemüht
geschieht
##seitige
##papier
Passagiere
Herzogtum
unerheblich
##.7
Recher
##EB
Gebot
Pilot
##stron
##marken
weibliche
##.15
Saarb
§60
Wies
##GA
Bitte
##haftung
##wanderung
##siv
beantragen
BT
jenen
Corpor
##kre
Segel
Schäfer
Referend
##berechnung
Gefangenen
##habe
allzu
##streben
vollen
##oberfläche
beschreiben
Kau
##volumen
Landrat
1873
Columbia
Camb
VfL
Wörter
Gerecht
eingehalten
##abwehr
##ichtag
##nabrück
##amik
##ington
letztes
##had
##ausen
Mündung
Kreu
kandid
Dutzend
Komprom
##UR
##rinzip
erzielten
125
##dringen
Volker
korrig
##personen
##duzierung
Verleger
##drucks
jüngere
##EN
87
##eitag
1840
Pont
##elf
##beträge
Verdienste
##filme
Beach
##uminium
##ttemberg
##reden
Kabel
##heer
AZR
Niger
Museen
##demokraten
Einmal
##":
##ungskosten
Schwanger
Jura
20.000
##termin
13,
##ontrolle
##fassungsgerichts
denkt
##decke
##denkmäler
aufweist
##kos
betät
##ämmer
Anal
Church
##rott
##haut
##eitern
regulären
##KV
eingemeindet
Rolf
Spir
Carolina
Schließung
Si
Spanier
##mannschaften
##enthal
Sohnes
hessischen
erweist
##leitungen
##schaftlichen
##besuch
Österreichs
einiges
plant
registriert
##kön
Eigenschaft
##öffnungs
##enne
Til
##bischof
Vietnam
zurzeit
verlange
Eva
##brücken
Protagon
erleben
Daran
Wolfsburg
konventionelle
log
Wupp
##skomm
Davis
Sätze
##fangen
Jesus
linke
unbesch
Durchschnitts
##zuhalten
##aa
Südost
Anruf
##hs
##tz
Bang
Rechtsgrundlage
How
##geist
Helfer
Liquid
verfasst
3-
NHL
wasser
##schrauber
Stockholm
##hus
##arat
Day
Audi
Inszen
##pflanzen
Mehrwert
##06
##hütte
individuelle
##start
##schers
fliegen
##holfen
leistet
überrascht
1886
Korn
##rip
Charlotte
erhöhten
##ti
##beratung
Plätzen
verlagern
##telier
Rezept
entnommen
##zz
Rote
doppel
Flach
##steinen
Feiert
allmäh
##/04
##icherheitsrat
##cent
Hamil
tausend
bevorzugt
mitteilte
erreichbar
historisch
juristischen
populär
wiederher
Erziehungs
zahlreicher
besetzten
##04
Ech
Gie
Aster
##ersdorf
Bedarfs
##uchtung
Schull
Zeitungs
##gefühl
Deren
realis
##back
online
Norbert
westliche
##ebel
umzu
##tr
baro
##zinsen
typischer
##EFA
##aris
Fär
Zellen
Generationen
Giov
gehörenden
##Für
Benjamin
Fahrzeugen
1200
Ähnlich
##magazin
Steine
1881
Himm
Beurteilungs
Dementsprechend
##itees
Erreichen
##ießt
Märchen
Genossen
öffnen
Tschechos
##dition
Rü
##akete
Turb
regelmäßigen
##aton
Cab
Provinzen
Beschäftigungs
##Em
Depart
##sprinzip
Steu
##quartier
##Hoch
gewidmet
anerkannten
gültigen
separ
Überwachung
Quell
Renov
##journal
errech
##schauen
##ianische
Vorbereit
Sher
##achungs
##gläub
##eichert
führende
Menschenrechte
##Spr
Wann
Areal
human
zweifel
##Millionen
Nörd
th
Axel
Sympt
Mainzer
##neburg
Ermächt
negative
formuliert
Einschränkungen
).
af
übrigens
begeistert
demonstr
Mitgliedschaft
1878
Perspektive
vollstreckbar
Zwer
Rechtsbehel
2000,
konzip
Zusammensetzung
Vat
Young
Panorama
##mengen
##Stunden
leidet
Evangelischen
betragen
93
Belager
Weihnachten
##spolit
##schneiden
Lokomotiven
gu
Fähigkeit
Kategorien
Kapazität
Eheg
Henn
hohem
Rdnr
##spreis
##schende
Cy
1876
existenz
vollständigen
Nat
§12
##archite
##Show
Held
Defen
ermöglichte
##rüm
Siedlungen
Zugehörigkeit
##keln
angrenzenden
unterrichtete
##dik
Pow
BetrVG
##waltungsgericht
Sor
spr
##eutral
Klägern
Psychologie
##ants
##pend
Gegenüber
klagen
Schriftsätze
Treff
erinner
##orchester
Gewerkschaften
Tan
Frühl
Fuchs
negativen
menschliche
Besonderheiten
Ruder
##märkte
Gregor
Propag
##stellation
Schaffung
Vollziehung
antwor
##zeitigen
indischen
erlern
Mitwirkung
##StV
##ränke
Einwand
qualifizierten
(=
##anter
##fußball
##äßt
Flotte
verbundene
Thor
analys
##-3
##hner
Wladimir
entzogen
##König
errang
##fallenden
GR
Zweite
Düsseldorfer
wovon
##würdigkeit
Balt
gezielt
##unterlagen
##perte
1830
##ieu
##deutet
##kontrolle
begegnet
##auftragten
Silbermedaille
##alo
##arma
verpasste
##verse
Hubert
beding
schönen
laufende
##nik
Bislang
Entscheiden
gerichteten
Vorrang
Windows
Reformen
Mannschafts
Beweisaufnahme
##the
##phys
Schar
verlaufen
Amazon
Korrektur
bekannter
entstandene
Genf
erhob
Albums
muslim
Zens
Kreise
Ausreise
1883
gehei
##eistung
##aj
##fuß
##Fern
##agung
##gemäße
Türen
Nahrung
##ulationen
Schützen
Wettkampf
Untergrund
Bauarbeiten
durchzuführen
1882
##aturen
##portiert
behaupten
##merz
Fähr
stolz
##merkmal
inklusive
##.19
##gerte
echte
Weiler
drehte
Osnabrück
vorrangig
Geltend
##fia
##visor
treu
Tenden
fassen
##zerne
Pferd
Germanistik
Qualifikations
##bie
##norm
##.2000
##ablen
Vorles
Erzählung
Betriebsrats
renov
Getrei
renomm
Möbel
Sammel
Breslau
überlegen
##französ
serb
schar
##situation
Blüte
halte
Felsen
Abweichung
##CD
Eric
##etscher
beeinflussen
2020
ziel
Lehen
betrachten
##analyse
##ovic
##Pla
Ahm
##ündigen
##.2001
##richtlinie
Pul
##sitzes
##sänger
Residenz
arabischen
angesiedelt
##senz
##lines
##pflichtung
##veranstaltungen
##bergt
1862
Bindung
einfluss
fehlerhaft
trin
einfacher
Dün
stammten
passieren
drohen
unterliegen
DJ
Lex
##aket
##irbt
Tum
##igent
startet
Ortsteile
Leih
kulturellen
##friedhof
regelt
Verbände
aufgetreten
Dozent
Franois
Gerichtshofs
##Ko
##berechtigte
Vorräte
angehört
##haftigkeit
überprüft
Goldmedaille
##pil
##unks
Agrar
gedeckt
Schritte
umfangreichen
Bedingung
Lag
Kanad
##mauern
Urspr
##vergleich
Ökon
##warten
spektaku
öst
Daimler
##oldt
##zicht
Darunter
##yball
Innov
DB
verbliebenen
Origin
##ukle
##kasten
##orthodox
Pakistan
##ourcen
Gewinne
Hur
Ware
##oid
##uan
##wissen
##geldes
grünen
bayerische
(16
Laus
Türken
Wissenschafts
##bereichen
sichergestellt
mitunter
Europap
##alm
##entz
##iction
Beobacht
Regiment
beschleun
Gesellschafts
##20-
##edia
Lewis
Jugoslaw
Virginia
##eilt
lieben
empfangen
##vereinbarung
dorthin
Disziplinar
Produzenten
##sters
Insofern
profitieren
Aar
First
geführten
läßt
Leucht
##bezeichnung
Ankunft
antiken
Abhängigkeit
Schiedsrichter
##gängig
##platzes
14,
##ssern
legend
Victoria
Entdeckung
##walde
Jeff
absolut
Aktionen
Erdbeben
Synagoge
Kilogramm
Woiwodschaft
egal
Gleis
Jedes
Indian
unzuläss
verschoben
##sklasse
Bedrohung
FI
##westlichen
##Red
##fizit
gewählten
##abon
Etwas
einheitliche
##iop
##Division
zeitlichen
0:
##tlicher
vergleichbaren
##anisch
entst
##armee
##athan
##preußen
##izierten
Od
Westfalen
Staff
Spannung
Magn
Claus
##ungskrä
##lagerung
Bucht
##alitäten
Fremden
Fernsehserie
lieferte
##ierbar
bedeckt
00
##bedro
Gemäß
Verleihung
##flikt
Romane
erlangt
abgebaut
gelernt
Prinzessin
##Car
Demonstranten
1869
Hamilton
sank
Ehepaar
1861
Instrumente
##ungsverfügung
abseh
##EA
bar
dun
##gehung
Gesetzgebers
##uverän
Bürgern
hervorra
##agnost
Samuel
Elect
Manuel
förder
##lat
Fred
Vogt
Respekt
entspringt
Cott
Halt
Futter
beteiligen
##etta
jährlichen
##Per
##Komp
präz
##rückt
Steve
##spielraum
ausgehend
Artillerie
##/18
Tä
##tirol
##verbands
##alia
unein
Analysten
##dazu
##Produ
##KK
2:0
Weder
##iebt
kurzzeitig
motiv
vorgenannten
Jacques
##/17
Lem
Tenor
89
erstmal
langfrist
##enkte
##offen
Kore
Profis
vorzeitig
erschienenen
Mail
Reit
Erstellung
gerichtete
gestaltete
Sud
Result
massiv
englisch
##iva
##Musik
Faust
gestalten
exter
Hoffmann
1877
Trop
erfor
einzur
##ennens
Katzen
schriftliche
Verbind
absch
erkannte
erwerben
sachlich
Französisch
AsylG
Medaille
Cir
##andro
Gegenzug
(15
##bühne
iran
##anders
Drama
Carlos
berufliche
weiblichen
unvoll
##zung
Knoten
lokale
##äbe
##Verband
Vögel
Ferrari
fortgesetzt
94
Vorfall
Hanse
Detail
%,
erstatten
Ermittlungs
##phil
Gras
Volumen
belasten
zuzuordnen
##vok
##weilig
hiervon
Clo
Media
Gutsch
##illy
##unte
Prix
##schütt
##ehem
stützen
##züg
##spor
##ungsanlage
##zehnt
Serbien
silber
1864
##leuten
##ahll
##isemit
landete
Vielfalt
künstlerischen
befürchten
geste
##ahne
Wik
nachts
berührt
Erneuer
##aldo
##these
##Gesetz
##Mün
##ommel
Einreise
Dsch
telefon
##quis
##entschieden
##webe
##tex
Asylan
##isierungs
##atsch
Geistes
bestehend
Pausch
Eignung
Textil
Selbstmord
Aspekt
##acker
Jüd
Kroat
Marco
##Di
Divis
Urkunden
städte
Freising
veranstaltet
Linke
hoffen
€.
##rath
Zwill
##lu
ruft
Ziegel
##wil
VfB
##ädagogik
Bundesländern
##vanc
Dob
Busch
Chile
##eichten
Mönchen
##Arb
##cus
##farbe
##ildes
##lauer
Sattel
etliche
##mitgliedern
##ichern
##wandlung
European
feste
##cz
##oda
Werks
Straßburg
künstlerische
Myt
##ätsel
Woll
kurzem
##arz
Vorsitz
##regelungen
unterzeichnet
dich
##kinder
initi
##urkunde
##WF
##alters
organ
##nord
enden
##schreiten
##akel
##denkt
Mühlen
Tausende
##abilitation
##ränen
##muster
##ulierten
##icus
##öpfung
schwierigen
##box
Klag
##stitel
2001,
Const
Beschul
##ivität
Kleine
Chl
##elles
Drag
##hindert
Angelegenheit
##ww
Duell
aussehen
Brutto
Balk
##andina
Landgemeinde
##ehrten
Programme
Ry
##eifen
Russen
Spielfilm
##bett
Linken
Bulgarien
stattfand
Einsätzen
Kompetenz
Zahlreiche
##wün
Typen
Pennsylvania
2017,
##motoren
Anteils
##//
##stür
1849
##strafen
seltener
##inois
##ziert
Volont
##erhebung
##-4
##EUV
##hänge
##stheorie
Persönlichkeit
ass
Navy
##echs
##lank
1865
befri
normalerweise
Chinas
Vermieter
vorbehalten
##Kultur
kre
Beseitigung
Abrechnung
##uner
Republikaner
Büros
Eichen
origin
Inhalts
sammeln
Persönlichkeits
##kW
##leibt
Nerv
brut
Grabst
Planeten
##Motor
##bruck
Guard
Website
schnellen
##omon
Bohr
übte
benutz
##apur
##denz
##assau
##ftigkeit
hieraus
erneuert
##bilanz
Schlos
Süß
Töt
##rien
##ziele
##ury
Gol
##liebe
Witten
regionale
Tony
##ensburg
zeichnete
abweichende
##ografen
modern
vollem
habilit
##urb
Schacht
Oxford
Massachusetts
Cob
Schmerz
EP
Moz
##brunn
Harald
(7
##ächse
erre
erstaun
umgekehrt
Finanzkrise
##Verk
schäd
##schüsse
Kf
amerikanischer
##Alt
wohnt
Planungen
##weiser
Mitarbeiterin
entscheidungser
##fries
Störung
selbständige
Lösungen
##berechtigung
beschränken
Aluminium
Reaktionen
103
##orger
##ible
Free
Modernis
##uge
##kämpfe
gestartet
Sad
dynam
##oldaten
werfen
endgültigen
##Kom
##ängs
Sydney
Abtei
Victor
##atorische
##räsentation
Außenpolitik
Geltendmachung
##zten
Trib
##ärztlichen
städtebau
investiert
halt
Ziels
Taschen
##Best
gewisser
einander
Volkswagen
Krankenkassen
Wün
##Intern
##iform
Sports
##räg
##mitten
##Version
Leuten
Chefredakteur
##Kar
höl
##sparenz
Rebellen
##nisses
Gep
Geltung
mathemat
##schullehrer
Legende
Vorjahres
Meg
##ckten
aufer
Begehren
religiöse
Olympiasieger
Wahrscheinlich
Angreifer
##Peter
Patient
verwies
##ämm
##häus
##immern
belgischen
traditionelle
##hum
Olympi
Belastungen
Christop
verlässlichen
##ires
Plattform
Testament
##nur
EC
##mien
##higen
Staatsan
##itus
Hess
kinder
##eser
Jun
Privileg
ägypt
##schwitz
Antragsgegners
Burgen
vorherigen
##Liga
##okol
##steiner
langem
schnelle
Container
Diskrimin
##sieg
##emens
##leihe
schutz
versen
##ains
##vinz
##nüpfen
Geschwister
Motive
Nachbarschaft
##AR
Bauf
perfekt
hervorge
Ergänzung
Nachkommen
InsO
fehlte
Luftfahrt
Abstammung
Legislatur
##glo
Schult
elektrische
##dige
##träger
bescheiden
##städt
Transfer
##kohle
97
Hot
##mos
Mahl
umfassend
##Wahl
##lüsse
Konzentrations
##dom
Cover
überfl
Bundesarbeits
##)-
Coach
Luftwaffe
##App
Würde
##produkt
Fachwerk
Manchmal
verstößt
kreis
Wid
Zoo
siebten
zurückkehren
##höfen
##://
##öck
grob
Awards
Oblast
Hauptort
aufrecht
##],
##literatur
##Frank
Kurfürst
Kindergarten
##sparen
äußern
Ernährung
NZ
Lat
##Richt
##wachs
Vergn
ergangen
gebraucht
Generalsekretär
##Seite
Anwesenheit
##sturm
Übertrag
##achel
Schumacher
Volksrepublik
##Landes
Aufforderung
zut
##schaus
Castle
aufwend
##rup
ev
Reeder
##stationen
fünfte
geschm
##berichten
Ketten
##schlei
Ausgra
gesammelt
##now
3)
DS
##Char
##rtung
gestrichen
##dell
##ollt
bit
##hon
##Boot
ArbGG
erlaub
##irektion
Holland
##höhen
##hammer
begehrte
unserem
Demokraten
##jub
Wandel
Malt
demselben
Pers
##ameter
jenem
##merkt
Infolge
abgeben
virt
##emeister
Hilde
ungarischen
##ismen
##varian
Mörder
anbieten
Verfolgungs
töten
##ibl
##nov
besiedelt
beurteilt
Obergeschoss
Counc
Central
##fehlshaber
kontrolliert
##ündeten
reinen
beliebte
##Rock
##format
Wille
##kraftwerk
Schichten
Erkrankungen
##mente
##lime
Fres
Mathemat
Sauerstoff
schwedische
##spunkten
##übergang
Besoldungs
##kirch
blut
Mittag
##gnor
##saison
juristische
##index
jetzigen
##ining
##scheibe
erteilen
angezeigt
woraufhin
##Spe
##pton
##brach
##Unternehmen
erschlossen
##lief
Stet
Dax
Denkm
Kommune
##wohnungen
##bildern
verfolgte
##skar
##tätig
##reuung
möchten
##olph
Akadem
Feucht
Spekul
##achtete
Prospekt
kulturelle
##vögel
##omputer
dahinter
##/03
Wend
##zwecken
Reihenfolge
Squ
Kunde
##iy
##Album
##dehnung
Gn
##Grund
Kent
kostenlos
Lebensunterhalt
Earl
##breite
Gewähr
Zweiter
Brutt
Nerven
Zeichnungen
Demokratischen
Sun
§16
gelöst
Unabhängig
Vorschläge
Eigenkapital
Kanzlei
Miner
##stanzen
##reihen
aufgeführten
##www
Videos
kürzer
geradezu
verlieh
Landtags
Eintragung
Räumen
##fell
Grafik
##endel
##steher
studieren
##icz
dreißig
Grundsätzlich
##ographische
unauf
ausgeglichen
##BW
Flo
Hirn
Ärger
Endspiel
absolviert
##)",
##hens
##ikanten
Heirat
Erwerbst
untereinander
##utsch
Cham
Sandstein
Gift
Leiche
sofortigen
regelmäßige
umliegenden
gebrochen
unterhalten
##BI
animieren
Erscheinungs
##haar
##miral
Diff
##iegelt
##Ha
Glaub
3:
##laude
trop
langfristig
##perten
##skrise
annähern
begleitete
erweiterte
verspricht
##schätzung
##historiker
##BO
##hou
Ström
##Staaten
##elemente
Douglas
zählten
digitalen
Schlä
flach
##rio
Brad
Antworten
angekommen
##Da
Palast
festgelegten
##verbind
qualifiziert
Pac
##wachstum
##serlaubnis
eingereicht
##ence
Ras
verwaltet
dahinstehen
musikalische
##/99
##märkten
Eingangs
Tipp
Lissabon
erlangen
Sicherungs
##cal
##kontroll
inwieweit
Prototyp
Rechtsfrage
ausführlich
ill
##ppich
##zuge
Leu
##woche
1863
##gerichtliche
Reis
##elevant
Flusses
Intelligen
Krankheiten
16,
Agen
Befest
Benutzung
dritter
Geheimnis
zugestellt
##löse
Dame
##ements
Urauf
Bewerb
##projekte
Rückgang
Vene
Einladung
##geschichten
##WE
LP
Listen
##sterben
dieselbe
##zahlte
##kong
##häfen
##fahrzeugen
105
##ioden
Kriegsfall
Gor
Torwart
##messe
Fraktions
Interpretation
##kus
##sverkehr
gerät
##übernahme
##disziplin
kommende
Russlands
1.000
Leichen
##amenten
Bewegungs
##/7
##adet
##brief
##gespräch
Feststellungs
##gek
Auftreten
Universitäts
Ric
Amerikan
schwerwie
15,
GKG
##endem
Aufträge
anlaufen
##ärer
ungen
unzum
deutet
##ausübung
römische
##ausstattung
Ralf
##wechseln
Eberhard
##köpf
Sklaven
polizei
##my
##gland
50.000
AEUV
##mäßiger
Maz
hofft
Julian
kümmern
Regierungen
Publikationen
Jim
sign
geheim
krimin
Angestellte
##Zu
##/00
liebe
Freder
größter
angestellt
##worth
Kast
##BR
regeln
vornehmlich
Herausforderung
Buck
Nobel
Rechtsp
##spark
Pad
unabhängige
##ietz
##gerichtsordnung
Nordwest
elektronischen
verschaffen
##ipe
##obahn
##eigenschaft
Vermutlich
objektiven
Unterscheidung
Vw
Buk
Städt
These
feiert
gebürt
##personal
Episoden
Vernehmung
reduzieren
Meistertitel
eingehen
##ibir
kalk
##ettern
##Mitglied
unterlassen
Verhandlungs
##schub
##vollzugs
monatlichen
##eira
kop
Sarah
##anzeige
Mohamm
Christi
Bereitschaft
##suchen
unglaub
Tafel
Spielzeiten
langjährigen
DNA
behielt
##steigerung
Vollstreckungs
##wässern
Arbeitnehmern
Präsid
aufw
Regime
Dreißigjährigen
Sende
Ni
XX
bleibe
Experiment
##ped
Lungen
##wegungen
##cio
auss
##alifornia
annehmen
Up
Linz
live
Cross
Bakter
Impuls
gefärbt
##ices
##antasie
Klausel
##gelder
##oppelte
Kämpfe
Ansehen
niedrig
Bürgerkrieg
##kept
Brauerei
##scheidungs
##afeln
prozess
treiben
Bestellung
##ablauf
##underten
gründen
Störungen
warnt
warnte
Biat
##riebenen
##klassigen
präsentierte
##städte
##gründungs
Gutachtens
konzentriert
herkömm
stammende
##BT
Kär
1806
Breit
Volle
angesch
Italiener
famili
Schmerzen
##gebrauch
Business
Jag
Haust
Rhythm
argentin
informieren
Flieger
Freistaat
##räu
##ienne
Geor
Event
denkbar
begleiten
##/3
##vorgang
messen
BGHZ
##status
Konstanz
Einzelmaßnahmen
##uters
##istern
englischer
Grundgesetz
fremden
stiegen
komplette
##hoven
Saarbrücken
##ize
Nam
##ängst
Zuschlag
gerettet
gebotenen
vorgelegen
%)
##fleisch
sächsischen
darauffolgenden
Pie
rie
endgültige
Flagge
Adresse
glie
moderner
Kunststoff
eventuell
Giovanni
Reichweite
bundesweit
§35
Bast
Bischö
Stephen
##iern
##reuer
##faktor
halbes
##borg
##störung
Diagnose
Schönheit
##Mark
##,-
respekt
##schichten
##Pal
Ti
##osop
##kritik
##filmung
##steurop
abzustellen
existenzbedro
Rechtsschutzes
Marin
Verstär
##heimischen
verweisen
##owitz
arbeiteten
installiert
##Wilhelm
Schieß
AsylVfG
##kommand
##sichtig
##würde
##anzlei
##stücken
##tenden
##kons
Humb
##Men
Tote
##nüpfung
##klichung
willkür
bürgerlichen
##BV
cir
##inseln
Seminar
##bry
Dür
##Gebiet
vertret
männliche
##bieten
Revol
Muslime
Seither
##lust
##ünder
##läuter
##ungsort
Funktions
musikalischen
##Ur
Model
##Netz
Übergabe
Nürnberger
gegeneinander
Töl
##verhandlung
1856
Iron
Rac
Rüge
##ocaust
##probe
##ower
Cous
eingesetzten
##uma
##äub
allmählich
nachweisen
##video
Eröffnungs
##kurse
##kollegen
ausgegeben
Konzentration
##Do
##riffe
lust
##wältigen
Jahrhunderte
(1.
Substanz
beherbergt
umfangreich
hinzuweisen
Image
##andinav
begründeten
##ares
##bezogenen
absolute
##zes
Klubs
Abbruch
Großvater
##brachte
ernsthaft
Besteuerung
Math
##wandel
Bestätigung
Tatbestands
Commer
Pader
Rasen
Slowakei
sexuellen
Gefährdung
Beer
fristgerecht
##Linie
##mensch
rechteck
Bearbeitung
Veranlassung
##_2
Buß
##09
##ship
##spielerin
Baureihe
Neck
Faktor
##aßnahmen
schottischen
gleichermaßen
##Wei
##geboten
Kultus
Slowen
Schwaben
##phia
##meyer
##gezogen
bemerk
morgens
Thailand
Ausweisung
##stage
vergleichbare
##Bild
##üster
Musical
angeführt
anspruchs
Vil
##Fußball
Gemüse
stirbt
leichten
##fektur
Siege
##zeitige
Piraten
##ulin
Neues
lägen
Designer
Lamp
typisch
digitale
Sark
##scheiben
Plastik
Raub
hierauf
Sparkasse
gemeinnütz
..
##dep
Stall
##etzungs
Spring
behaupteten
Snow
##isseur
##zeigen
Wilhelms
bedeutete
beantworten
unterird
##cast
##ächern
##wägungs
heftig
##rechnungen
Diskussionen
Gerechtigkeit
Weißbuch
Beobachter
bekleidete
BBC
Kleinen
Triumph
Sanktionen
verkauften
##DV
##olis
Schenk
Komödie
##/19
##uri
Had
##zuges
verbreitete
Halbzeit
Warn
Warte
vermuten
##ungszeitraum
eigenständig
Id
Pest
schauen
Südamerika
befasste
Junior
Pharma
reisen
Versionen
erfolgreichsten
##Leben
##antrieb
Bernard
gelebt
zugeschrieben
##Regiment
Zentrale
##schaf
Munition
besonderes
##MR
är
Unsere
Filmfest
Minn
eigens
kommunalen
##Uhr
##stellbar
Geschmack
##agon
behör
erhaltene
##icip
##strich
Taylor
##hema
Begleit
##attle
##noten
Dreharbeiten
einsetzen
verhältnis
##chor
kar
Huber
##schreiber
Verwandten
Terroristen
stünden
Bow
Farm
Breiten
Körperschaft
##PC
##kins
Konflikte
gegliedert
##dliche
antrat
##atch
Bit
1803
verfehl
Weltrang
##Berg
##orgfält
Cho
stützt
##DI
##etisch
Netto
singen
Saarland
Ull
##ahnung
##ächeln
##klassen
##tenberg
bedur
##Bundesstaat
festgestellten
##Fried
Ohio
Auswertung
##befrei
##mittee
wohnte
##ifizieren
##schädlicher
##Saison
Briefe
##inens
##irurg
Katal
drohte
königlichen
Anat
Diplomat
##mä
##wurfs
befunden
;
con
##imit
Maus
Artik
Toronto
TSV
Schmal
##pflichtig
##iatrie
Erheb
Gaz
##erkran
verwandt
Bundestrainer
Fün
##ildete
Point
Kathedrale
Erinnerungen
hoff
Gefecht
tätigen
unmittelbare
Tuch
##steins
ungesch
Eroberung
##odes
Wilson
zahlt
unterhält
angesetzt
Male
Tabak
wohnen
Kri
##höhungen
Staatssekretär
##News
wohin
Decken
##äpst
traur
Stabilität
umstrittenen
Vorratshaltung
##rön
quadrat
Om
Ara
##wellen
Theres
echten
##lehn
1859
##genehm
##kreises
vermieden
##presse
schicken
##ume
scheinbar
##Modell
##ungslos
Dienstleistungs
##/12,
Proben
##Hand
Valley
empfohlen
relevanten
niederländische
##Max
##bri
Standards
eingenommen
Entscheidend
IG
Magnet
Landratsamt
##itischen
##getan
dargestellten
Ala
##gesucht
Hierfür
bezi
##eto
Portal
Weimarer
##";
##eihen
##rucken
##schefs
Games
Früchte
begraben
eigenständigen
Sob
##Urteile
Befristung
##iehlt
Gutschker
entschlossen
6:
obersten
ungeachtet
##Groß
Kiew
gelesen
Herausgabe
Vizemeister
stationiert
Ay
##blau
MTV
##programme
Offenbach
einges
Partnerschaft
450
Cornel
Elfmeter
denselben
eintreten
präsentieren
Nase
Kampfverbände
##ovi
##misch
line
Beamt
##bruchs
##tages
Dienstherrn
Organisations
1,2
trennen
Lieferung
demokratischen
##lohen
südliche
akzeptiert
Prozesse
verantwor
##Me
##älz
einstellen
##Eine
But
Boris
##zuschlag
##rend
massiven
Eintrag
ausgeht
Achtelfinale
Arbeitgeberin
##steuern
Adress
Auszeichnungen
Verkehrslenkung
##vogel
Schlosses
##gnost
inhaft
legten
Härtung
abschloss
dick
##ross
##ways
##leidet
Maj
Umlauf
sobald
Bewertungs
Haare
quasi
Kroatien
ärztlichen
Bj
##/10,
Punk
##eltern
##musiker
Schwere
individuell
##Dar
förm
Optim
##andelten
Kampagne
Herkunfts
konzentrieren
##lug
##gens
##eback
##kundig
Verjährung
##aco
Tai
##Christ
##aspiel
##geheim
Meist
hinreichende
unabhängigen
Hahn
Toil
Rendite
##methode
##ave
18,
abgehalten
geladen
Unge
Generalma
geschützten
Elbe
Studios
Empfehlung
Clubs
Fokus
Vorgänge
##bezogene
Mittele
geltende
Wertung
##katholischen
##summe
Zufall
Knapp
beruft
Fahrbahn
Holocaust
Zucht
Bamberg
Gitarre
andauern
Erfordernis
Lis
##schritt
##ehrte
Turin
normal
Anliegen
wachsenden
##idt
##ulf
Piet
Zert
Sachbuch
##Buch
##iologie
##Ausweich
##adelphia
##anschluss
Katastrophe
hohes
4000
Bann
baut
Berger
Institution
angeführten
##itären
Kurse
Keramik
##brüche
folglich
untersuchen
demgegenüber
##cons
Mix
##sbezirk
##widrigen
dortige
angemessene
dementsprechend
Tz
##Arab
##ophon
##ziell
Wenige
vieles
##Wert
Buen
##eignung
##reitung
erfüll
Erörtert
Seil
##Prozess
##iatischen
verneint
Ursprungs
verglichen
gegenwärtig
Dienstsitzes
##sko
##/02
Acc
Bog
kehrt
spezialisiert
##eitig
##schauspiel
##Erstversorgung
est
##siedlung
Jahrzehnt
Kriminalität
##8-
##hälfte
erzeugen
täglichen
Dirk
Gleichwohl
##frauen
##stufung
Marsch
##End
harten
##kandidat
maßgebliche
organisierten
Lyn
Entert
erbaute
irgendwie
evangelisch
unangemessen
geschützteren
Werft
##bischen
Perform
Berufungsbe
GA
Pkw
##ktive
##statter
##rankheit
##lassungen
Betreuungs
Salv
verfolgten
##zusp
tau
Emer
Lady
Gruben
verkündete
Alarmsystems
li
##izid
Trik
sorgfält
##grammen
Übersetz
untersagt
app
rückte
##Ausweichsitz
Affäre
##schlüssel
zufällig
effiz
##Turnier
Jersey
Weiteres
russischer
##drei
##reen
ausschließen
##zweig
Ausfall
bekamen
örtliche
Ye
Referenz
Kleinstadt
Ziv
etwaige
betriebs
Siegfried
angewendet
Tam
##masse
bittet
erhobene
stattfindet
CN
##lsen
Hür
jahrelang
##Eu
##ologien
Kolumb
Äußerung
Bekämpfung
drast
##würdigung
Springer
SED
##leite
20-
##dring
Mayer
Illinois
Bewusstsein
##politiker
##pert
Sekund
Kulturen
##wältin
##umme
verzichtete
Parks
Atelier
Diözese
normale
beklagten
Moor
Bezugs
israelischen
##azität
##TC
##jur
teilgenommen
##rachter
##würdigen
Geheimdienst
##via
##bele
##dimension
Nationalspieler
##bestände
##anch
Zyp
armen
Rettung
expliz
frisch
verliebt
Aufschwung
##uchtet
elektrischen
##olischen
Erläuter
Nichtzul
Lebensraum
schoss
Empfang
erfunden
Zumindest
##resse
Claudia
digital
Atlantik
Benachteil
##finanzierung
beschriebenen
Weit
norwegischen
Versetzung
##oman
Tageszeitung
##ione
##lägerin
##skammer
Projekten
Diam
ergebenden
##aison
##geschehen
Schiffen
Volksschule
##genz
##verm
##hause
block
Aufstand
Beitritt
##zahn
##wertungen
Ents
flex
freuen
##enke
24-
att
ES
##invest
##Theater
##Verfahren
##zä
Zugangs
nördliche
Bewegungen
viert
zeige
Folgende
Beobachtung
Länderspiel
Kass
Werder
##Tor
##ocht
Verw
Heu
rügt
ausüben
vergeblich
Fulda
##retungs
Ressourcen
Rup
Semester
Südkorea
annähernd
verweigert
##/4
Esp
Wim
extra
angewandt
Telekommun
unbekannten
Marg
Märkte
##ungsmittel
angehörte
Tränen
Erdogan
##vergütung
Galax
Standorte
Bebauungsplans
##house
##brunnen
##handelt
Charlie
Dy
##ruhen
Moos
klaren
Wegfall
##Typ
Innere
Anwohner
Gegeben
##ürtel
##esischen
##gladbach
beseitigt
##owo
##zonen
Eliz
Frances
##sprüch
Freiherr
##darsteller
versteckt
##karriere
Teich
fremd
Ehegatten
##ktoren
Regelfall
Welle
##wirtschaftlichen
17,
Fox
##gesetze
Neapel
##verträgen
##ahnsinn
Christine
Oskar
Schalt
TU
##arth
##ekut
##wirksamkeit
vertrags
Minderheit
Einzelhandels
##höre
Bug
Arsen
Chrom
Stoffe
Vulkan
California
Erforschung
Fracht
##Gi
##rob
Taxi
##ikationen
Christopher
##zoll
Köhler
Bundeslig
geeigneten
befreien
Bär
with
##fielen
##istisches
Kraftwerk
##arnt
##höriger
Ki
Kru
##proben
Flüss
Aussehen
Passagier
1854
erlauben
abgelaufen
selbständigen
##Halb
Sven
derjenigen
Freiheitsstrafe
##work
Gebirgs
##hoe
Sees
Kevin
Instand
(10
##inhalt
1999,
##setzten
Council
kräftig
Leidenschaft
Zö
Court
##methoden
##lack
##conom
Skandal
Situationen
##Du
stecken
##Regierung
Peg
##inische
Ursula
Ingenie
verbesserte
vereinbarte
##samkeit
Öffnung
hy
Conc
Solar
Rentner
durchgesetzt
##ulab
Gert
versprochen
##wicht
Ihrer
##ristall
Bezüge
Leich
feind
Bezeichnungen
##)".
Blog
##fallenen
##/09,
##konto
Unterst
##zeitlichen
Gedächtnis
betreffende
##rüge
Stau
##usten
galten
geprägten
##Des
##ämter
lebende
anerkannte
Transparenz
beauftragte
Carlo
##ölk
##öser
Note
Platte
##eingang
Haw
##firmen
##laufende
ankommt
fliehen
§34
Blitz
fügte
##denburger
Kurfürsten
finanzieren
##glied
Harvard
Life
Thal
Oberflächen
essen
Schock
##sbehörde
bemerkt
verpflichtete
Basil
##fisch
##ape
Pant
Dunkel
Folter
zugelassenen
##älen
1852
ruhig
Bedien
vertraut
Blue
##Museum
##elekt
dreht
##greifenden
bewiesen
Selbstver
##Weiß
sto
Roch
dran
##ungsansprüche
ordentlichen
##vit
##ibilität
##Brandenburg
Handwerker
##unternehmens
mögen
Skulpturen
Winden
Finanzierungs
##erg
mü
UStG
Clemens
genügen
Veranlag
##erecht
##Ak
Ud
##dorff
erlo
##laster
##Bürger
Reifen
Texten
##büchern
##iler
##jagd
##nachläss
Grundbuch
Antike
Rechnungen
##verletzungen
Gene
##Go
Wolken
Grundriss
ersetzte
##.8
Kna
##Mont
Philadelphia
Good
irak
fällig
##häuse
##kämpfen
Gräber
Meilen
verlangte
ZB
fragte
geschlossene
##tum
##Port
Cin
##osh
Army
##fassen
##hauser
##lautern
Gleiches
verworfen
##Mitarbeiter
##gemeinschaften
##behr
angebaut
##Ol
Barack
Bekenntnis
gewöhnlich
verblieb
Erlangen
öfter
##örtlich
Weser
circa
##ungsbef
30.000
Publiz
Indones
##telang
Challen
Professur
deutlichen
Tick
##austausch
Fundament
##urteile
##zusagen
19,
##schwe
Hels
tiefen
Highway
Sektion
draußen
Schaffen
20,
##schern
##stetten
sauber
identifiziert
Za
Water
Schill
##gärten
vertraglichen
##abs
##abbau
##antische
reagierte
reiche
sammelte
115
Rass
##stehend
brü
ras
Grundstein
betriebliche
##reter
##speicher
Cambridge
Vorläufer
Kamp
##bourne
missb
Dividen
uneingesch
Corporation
##awa
gesorgt
Anlehnung
##mün
##relevan
ansässigen
nachhaltig
##zessen
##maßstab
beträcht
Costa
jugend
##übertragung
##/11,
##hüll
wartet
Offenbar
##satzes
bricht
Johanna
4,5
Dun
##erkennen
##Ass
##fechtbar
stürzte
##überw
Gute
##versuche
bewirkt
einzeln
trainiert
wenden
##istenten
Auswärtigen
gegenseitig
Durchsetzung
##dl
##beschlusses
##eme
##chsen
##wartet
##rankenhaus
##oler
Streitjahr
##onische
Migration
Thüringer
Konsol
Kosovo
##6-
##itiv
Überreste
Immun
Abwesen
Restaurants
vorangegangenen
##199
konkurr
vermehrt
Morgan
Mütter
mancher
begehrten
Begrenzung
##beschäftigung
stammenden
().
##zenen
##änglichen
besiegte
Belagerung
derartigen
##emie
Heid
##bauung
beheim
ausgeprä
Gewerbesteuer
Sitzungs
Vergewalt
##ohne
##final
##spräsidenten
##höl
##ims
Coup
Jugoslawien
Französischen
ausgeschieden
##Auch
Disco
übliche
schickte
##imer
Guten
bewohnt
staatlich
Argumentation
##LA
Neure
ignor
Athlet
kämpft
##xit
Luis
befra
##ungsgrund
lehnt
##angehörigen
##hmer
Fas
##prech
Liver
Muskel
Proteste
1813
##steigt
##äumnis
##skandid
##mittelalter
gebildeten
Bekanntheit
plaus
##krieges
benachteil
htt
irre
Popular
sicheren
Erzählungen
zugesprochen
##ui
##gio
##zei
StR
Philh
Frequenz
##Mannschaft
verarbeitet
grenz
literarischen
Hartz
##störungen
Bände
Brigade
##alifikation
Geräu
##Bahnhof
##Bewegung
bekrä
Geltungsbereich
Nationalen
gewählte
verteidigte
fund
einig
Tobias
erwies
faszin
gesondert
Lt
##umpen
Laien
##ändischen
##DM
Größ
Sieb
Imper
##sek
Korruption
##begl
zeu
Sabine
Interviews
(8
##raham
##scheide
Abgesehen
Produkten
##ough
##necht
verkündet
islamischen
##kle
Gord
Rast
Kolonie
konfront
1816
kannte
##revolution
##verzeichnis
verbringen
Preußischen
##belehrung
Humboldt
Übersicht
Gegenleistung
##Flug
##Manager
beantwortet
Mitbegründer
##ights
Erbl
Stick
##vortrag
##zugeben
##beziehen
kümmert
##sverfahrens
Einwendungen
rechtskräftig
##zeilen
##udent
entwarf
beitragen
Pressekonferenz
Bin
dachte
dunklen
Kennzeichen
Kem
Gent
##ordens
Sammlungen
##staatsanwalt
benutzen
Verfasser
Cer
##felde
berühmt
Eb
##korde
Lyon
spür
##Jugend
##stiftung
##ualisiert
Aufführung
##Li
LG
Miete
##rale
##raße
##wesend
§80
##rennten
##städten
bulgar
Kreisen
Landess
enttäuscht
Lett
Studierenden
##apo
1857
Hind
Gefühle
hinteren
1855
Spruch
fusion
ausgerüstet
restauriert
Erkenntnissen
elektronische
liest
Greifs
##sichtlichen
verhältnismäßig
##hall
Wände
harte
Sophie
Unterbrechung
Semin
rhein
##springen
Kartoff
abends
unricht
Verbandes
gesamt
Geschlechts
Allgemeinheit
##iem
##tan
SK
Pur
pal
Barb
Dall
Schäuble
Argumente
beabsichtigte
##antast
##ottenburg
Vernicht
Mehrheits
kol
Ingol
stärksten
##uv
Demonstr
genießen
befindliche
Rumpf
kunst
schaut
entstamm
Anpassungs
Bekanntgabe
##kab
##theater
##Richtung
Janeiro
##Bi
##werfer
inneh
##auswahl
vorigen
produzieren
##inte
hor
##unten
Schö
Country
##zufrieden
Fortschritt
Ulm
Wut
##iftet
##decker
##gewerk
Sog
taucht
derjenige
##lücke
mech
Begriffs
##enner
Sparkassen
Sozialgericht
##lied
veröffentlichen
##iß
Beute
Föder
Meier
NG
Rut
##objekt
perman
verbracht
##szene
bitter
Umsätze
amtlichen
##anka
##ultan
begab
habilitierte
Verwirklichung
Forum
Münchener
Soziologie
##lis
##osis
Isol
Committee
Fahrzeugs
Gesprächen
1858
##rungen
Abriss
Tiefen
##rell
Spannungen
Reduzierung
Attra
##gymnasium
Unterrichts
##Az
Getreide
versichert
zeitgleich
##rium
Wy
Nordkorea
Kanzel
Schädel
##Dienst
ew
##sis
Ark
##filmen
liebt
##tausende
einstigen
##ansas
Muss
##gingen
##lichte
jemals
Dialekt
vollzogen
dazuge
Kaiserreich
ER
Hop
größerer
seinerseits
Vereinen
beachtet
steigern
##wN
##still
##zulage
Antarkt
eröffnen
zumutbar
##ahlen
##bachs
Erzeug
kläger
##afrikanischen
1.2
##regen
Festivals
Satelliten
##sexamen
1846
UEFA
Volkes
##ratis
Zone
zukommen
substantiiert
##izza
##irurgie
unternehmer
##lü
##lob
Lehn
##bedürf
Einleitung
sachlichen
investieren
##ologin
spüren
##schützer
übernahmen
##SGB
Außens
drehen
nennens
Komponenten
DA
sum
##eigenen
anwalt
Bibliothe
##endo
##ämmen
##thos
##ioxid
##verg
Way
##wertes
Paare
##arischer
hinterher
Unterschrift
Roma
##utel
transportiert
##vik
##resp
Schwerin
liebsten
##berufen
Wirkungen
deutsches
RL
##rall
kla
viermal
art
les
Rezension
Fürstenfeld
Medikamente
Duo
mwN
##stunde
Küchen
Langhaus
##Ant
##oppt
exakt
verband
Schweine
Liverpool
verlegte
hierdurch
sparen
##gebäudes
##Gel
Romans
Auswärt
aufgeben
Erfindung
Bod
##widrige
##produktionen
##/13,
haus
flächen
##))
##groß
Saudi
Florenz
##vereine
kooper
moment
Aussetzung
höchstrichter
##dalen
##wetter
Bewerbung
hinnehmen
1818
##aufgabe
überführt
zuzurechnen
Lebensgefähr
##.14
Kot
Viktor
Südtirol
Fed
##bedingten
Einsicht
Teilzeit
##größen
##galerie
Einstieg
Straftat
zueinander
Vertragspartner
##bles
denke
Zufluss
Italiens
kirchlichen
Indianer
Oslo
Poll
flog
##armonie
Balkon
Siedler
Europäer
Torhüter
Verlegung
schweizer
angeführte
Verwaltungssitz
##raph
löst
umgest
Königsberg
##imo
KR
##itals
geänderten
verhandelt
Generalmajor
Übereinstimmung
Cit
markiert
Andrew
##lef
##kleidung
Grundwasser
##klagt
Pack
Camer
stetig
zeitliche
##omb
1847
Holding
Lieblings
geschieden
Einzelfalls
unterzeichnete
##ouri
##ophil
unsicher
Königreichs
##kurrenz
##typ
##ipel
pauschal
##gebnisse
hinterlassen
##Raum
prognost
Winterspielen
##ennetz
gehoben
Herrmann
Jahresende
##ungsvereinbarung
##damer
Haben
diesbezü
1845
##schuldung
##uh
##ktiven
Trumps
ungleich
##staatlichen
Lade
Miller
##schiffen
Möglicherweise
Fakten
Bosn
Werden
näheren
Margaret
Ohren
Teufel
##Geschäfts
Orchestra
##löser
Kreuzung
Sciences
Vorbehalt
750
alledem
rekonstru
Standorten
##unds
§20
Broad
erneuer
schuldig
Explosion
24,
##ogo
##maus
Phasen
genauen
Unterlassungs
##wich
##idsch
##ivalen
Devis
berichteten
dienstlichen
##provis
erfassen
äußere
Oliv
##klären
Bonus
Vorbringens
typischerweise
##örn
##auflage
##berichte
verdeut
Lüneburg
goldenen
Eid
1851
##mach
##aska
##wirte
Damm
Vik
Wenig
Senator
privater
orts
##dauern
Grube
stimmen
Gletscher
Gren
Unbe
##skolle
Bistums
faktisch
##lowakischen
Steinmeier
existierte
Armin
##fö
##Mart
§22
##datum
##drücke
Mater
Unbek
Moschee
Rückstand
Bundesland
##kandidaten
auton
Social
untere
##versorgungs
##reue
Böhmen
##achteten
Deswegen
entfällt
Diebst
Homosex
einzusetzen
Nationalpark
Lev
gesunken
##ield
##senkung
Münzen
gehindert
Ig
litt
Auszahlung
##pan
sichere
früherer
komponierte
##may
##oxid
BVB
Nett
##seller
Sekunde
verfahrens
Kämpfen
Kriterium
parlament
vertraglich
##Test
##umer
Teen
höherer
Mönchengladbach
geringeren
Sav
##glicher
Kämpfer
Sternen
##ally
##lans
##Partei
geholt
unverhältnis
gäng
locker
Tournee
##betrieben
Aufzeichnungen
##aterials
Offiziere
genutzten
abgeschlossenen
##NS
##EWG
##kamer
America
Kond
##voller
entspreche
##-10
##sheim
Litt
Willy
##initiative
##DE
Jam
Cour
FamFG
##stimmte
überdies
Bewährung
##seg
Hauptmann
Stirn
Campus
##mess
LSA
##augen
vollendet
gebräuch
Präfektur
Stark
Mauern
Kontinent
##RZ
##zubilden
Smartphone
Teilnehmern
Gelb
schätz
Katalog
##gelegenen
Raf
##ians
##ifter
Aires
Weinbau
##schin
Leer
Centre
beigetragen
einheitlich
##zutage
##ffizienz
Wichtig
Inszenierung
##ängel
gewerblichen
##HA
wahre
monatliche
zwangsläufig
Dul
Kaiserslautern
##belt
##ühen
##Gemeinde
Bruders
sowjetische
##bot
##rypt
exp
Class
lobte
##visions
Scheitern
Chaos
1853
mehrheitlich
Eins
Manu
Mobilfunk
entziehen
angegriffene
##HK
##igr
Putz
Schwellen
Terrorismus
Inc
##stige
Ostsee
##gegenstände
Krieger
entschul
##Kap
##geräten
Hubraum
##sphase
Budget
##yo
##ksh
Libr
Pastor
Hunderte
Vollendung
Pay
Vas
##ural
risk
teurer
Zivilisten
Pitt
Pionier
Ergebnissen
Lah
Bären
blauen
Pseudonym
Trio
##sicherung
##verarbeitung
##finger
erwähnten
Jungs
##riminal
Rückzahlung
Demgegenüber
Zwie
Boule
Conrad
Ermittl
##vorbringen
##wochen
##röh
##lesen
perfe
##merkmale
maximale
##HF
##alon
177
Einheits
Investor
Kommentare
Systematik
##zil
##ücher
##antritt
Dörfern
##schädigung
langjährige
##CI
##nä
##yse
§18
##deter
##nische
Andro
Wasch
Paderborn
kolle
Innenraum
gestellte
Beteiligungs
Bundesländer
##arter
##olith
##hell
1,3
Koffer
verdächt
Personenk
##fassade
gewöhnlichen
##HO
##wird
240
Psychot
Einblick
sportlichen
Uraufführung
zurückgezogen
##rater
Empfangs
Kreisstadt
##utin
##irus
##udium
Iwan
bitte
Niemand
umgehen
##4).
kontinuierlich
Busse
Marcus
Stanley
##änzen
Kuba
Tabl
urteil
Preisen
koordin
##öte
unweit
##probleme
220
Lkw
##Betrieb
Anlauf
geschw
riesigen
Katholiken
##Aff
##ulus
##ädagogischen
##cle
fix
geehrt
abgesetzt
HSV
zulässigen
hab
überle
schmerz
##ehe
AP
obere
Etappe
Ministeriums
Nas
##venten
##klausel
##stimmungs
fehlender
kW
Hav
Old
Parag
Sterne
Streich
Chemnitz
##WS
##eisterung
Augenblick
##gegenständliche
##oms
GT
##amas
Cons
Heimatland
##öster
##gerechte
##iefs
155
Pist
Decke
grüne
journal
Monument
##schaftliche
Künstlerin
##ustiz
Teilung
praktische
##ites
##wälder
Dienstes
##grem
##begehren
##leichter
Trau
##etrist
##gnosen
Bundespräsident
##RF
##loß
Ansonsten
erfolgreicher
##reiz
##skop
Seel
Bäumen
Series
Hartmann
gesicher
Diego
##Agentur
republ
##katholische
Menschheit
Veräußerung
Fernsehsender
Call
Ehre
##Vertrag
Anstalt
Kristall
Tätigkeits
rechtsextrem
verwirklicht
##fot
##ainment
##pfleger
##positionen
Erblasser
Moderator
##kehrte
spont
Kessel
Auftrags
zuzüglich
##ungsanlagen
Operationen
besicht
starker
Unmittel
Vorrunde
Anim
Comeback
##Sprecher
geschäft
Hubschrauber
##asis
##damm
solch
Abschl
saniert
##3).
1820
Haushalten
Bekanntmachung
##nahen
plus
##kredit
sprachen
##ständischen
sicherlich
##essa
Höhlen
##Verein
Hütte
Philip
Napoleon
nachweis
##aba
##stheater
Singapur
##eball
##wache
##wertige
##Park
Kopie
Konkret
(§§
Key
käme
Gabrie
Drehbuchautor
Karos
Buenos
Logistik
bewahren
21,
Kay
Sympath
empfing
Aufsteiger
Versicherte
unterschrieben
Ärzt
Anführer
##ESC
##schatz
##undeten
##zulande
Zwecken
##Kat
vorab
anstatt
durchführen
interessant
##DG
##eda
Spl
Dich
##hessen
Nadel
wofür
Wahrung
##iri
##ithm
##fal
Währung
Durchgang
BIm
Lenk
##antrags
Gelder
##ikers
##prägt
Gross
Häufig
Option
unions
##phabet
##suchungen
Rohstoff
vorderen
Versprechen
Pflanze
Kommissar
Kredite
umgehend
Niederschlag
##USA
Wä
Arte
Impf
Weiße
##malerei
##ceae
NPD
##läser
Hend
berief
##Geschichte
geregelten
Philippinen
konservativen
##big
Rajon
##orph
analog
##anspruchs
Veget
erteilten
beseitigen
RA
##itän
##hythm
Atta
##sperson
##sprozess
Beweise
europäischer
Überraschung
##ieben
##rumpf
gefällt
Hongkong
##spaltung
##öntgen
##offizier
stimmte
akademischen
##üchtern
beschlag
Bayerische
Ankündigung
herzustellen
Sort
##ahnt
Anth
Freie
Fellow
bekannteste
##ungsverordnung
##andet
##acional
##osophen
Betten
Einver
Strich
##berufung
chemische
fraglichen
mutmaßlichen
##omatik
##Benz
##ikos
##klam
##pfalz
schmalen
##pres
##händer
Letztlich
Aufsichtsrats
##iago
##geregt
Ozean
##schutzgebiet
Eh
Betrieben
Künstlers
deutlicher
entfernten
##oks
Marok
Wahls
##echselt
Motors
beabsichtigt
##.;
##lastet
Wolff
heiraten
Salzburger
Dj
Witz
überleben
Generalstab
##hter
Falken
zugeteilt
Gesichtspunkte
##fi
Pend
hörte
##gewölbe
Balkan
häufigsten
Nummern
##schiebung
Rev
##Reihe
punkt
##betrags
##esh
einstimm
##ipl
Gis
Leber
syrischen
104
##ystems
Format
##stadion
Nordost
gewordenen
Kut
##werts
##runken
Color
weitaus
älterer
##ventionen
##We
##hilf
##hängigen
##stren
Initiat
Championship
Fifa
##abgabe
versamm
Scher
Lorenz
Abraham
##lG
##Bra
Hus
Mahn
Truppe
##jähriges
Petra
Lehm
##ktivität
##benennung
Spätestens
Cos
##artett
Wulff
fuhren
##Niederlage
##franken
##zugehörigkeit
Zar
anger
##gehalten
Starnberg
Ruine
Burk
schwieriger
Bundesgebiet
##minton
stößt
Gärten
Ausflug
##.13
##bon
geringere
angeblichen
##funks
##idakt
Gerichtsakte
Mehrwertsteuer
##stel
Born
Sehr
Titels
Zeugnis
##IM
vorgenommene
##eille
##zwang
Cher
Kollege
Geschwind
##sea
vis
##freunde
Berichten
##affel
Schad
Ausrüstung
##Lauf
(20
spitz
##anschlag
##meisters
Tak
1814
Bewohnern
##="
Daß
fing
Forschungen
Versicherer
ausgeliefert
Abu
##bezirks
Hessischen
Umwandlung
##Pat
##wappen
verwehrt
verließen
##OP
##stehe
##pausch
Juristen
Bäcker
stärken
akzeptieren
DIN
abweich
Haftungs
begegnen
##2).
körperliche
##Hö
##aine
##lland
##etenzen
einzuf
Fotografie
Weiterbildung
##führenden
Anrechnung
Kompromiss
publizierte
Schlagzeuger
##wirtschaftslehre
##LS
##Wolf
half
ungünst
Elizabeth
Berechnungen
Genehmigungs
stattgegeben
##ussell
##respond
##strukturen
Bescheinigung
##Res
from
##ögerung
ergaben
verminder
Alliierten
singt
besaßen
Anordnungs
Kaum
Trasse
veränderte
bedeutender
widersprüch
wiedergegeben
AV
no
##zogt
Dog
##drücken
##ändes
##uteten
1998,
grundlegend
##schle
Elite
Aufsehen
##FS
##amme
Münz
kontrollieren
##zia
Zelt
##üttert
Valen
drauf
Neuregelung
(0
Jr
##klinik
bekräft
##impf
##steck
Poten
formal
anzutreffen
##6).
##asso
##Liter
geworfen
Niederlagen
melden
##1).
sta
##eignete
fürchten
Erding
Giebel
Abwesenheit
Alan
Kolleg
Beamter
Gremium
Ostpreußen
KSchG
##ankungen
Besuchern
bestreitet
##edy
Mete
vermark
Anwendungen
##Je
##itekt
Weich
##hringen
physikal
##.1999
steigenden
##anzie
##schär
Zier
##tempor
##erenzen
Fische
##ungsfrist
forderten
Politischer
Flut
Match
##ierendes
Streitstandes
unregel
Kommunalwahl
tschechischen
##sor
Zypern
Michigan
Gästen
##inea
kna
Paulo
Ermord
Engländer
benötigte
##iesen
##flugzeug
Stammes
NBA
##teilige
sim
Bene
Höhle
Gewerkschafts
Osteuropa
etabliert
vereinzelt
Found
gewährte
Pazifik
##sbeding
großzü
verteilen
nationaler
unterlegen
stillgelegt
bild
##schenko
Sigmar
Erfinder
Konsequenz
eröffneten
unternommen
portugiesischen
poten
Flecken
Vorkommen
##ohr
##büros
##zwald
Schwert
empfunden
Gallen
Beschäftig
etablierte
dpa
Schub
Grundrechte
Minderheiten
selt
Taliban
diagnost
weltweiten
##Tal
##ple
##abor
1810
##zeiger
Opfern
##liebenen
KA
beha
tiefe
##gewächse
Verbund
##angelegen
Inflation
Lastwagen
Einverständnis
zugute
jegliche
Erholungs
vertretenen
##Zentimeter
aufzubauen
ret
##schmer
Rache
Stabil
aufbewahr
Jen
##stone
##standort
Wuppertal
Hildes
Wed
##schaftlich
Ausdehnung
Krankenkasse
##kespe
Flüge
Zähne
Südseite
##bestimmungen
orientierte
Ltd
##nächst
Humor
kaufmänn
##Mich
##Markt
abget
gewertet
##utherischen
ländlichen
kro
Frisch
Benutzer
##ungskräfte
RB
Ment
##schles
Marathon
Gri
Erik
##rachte
##reißen
erwähnte
##Vorsitzende
Aufklärungs
##rica
Hip
##autobahn
Aktuell
Schwarze
Grundrecht
Gill
##Jähriger
##rust
Flugplatz
Erwachsene
##Tra
Cu
##läuft
Fair
Game
Cheft
15.000
##igerweise
Einzugsgebiet
verbleibenden
Lom
BSGE
Verwertung
enthaltene
##chi
##yers
##endienst
Mohammed
Herrschafts
##alp
Pi
##ilmt
Verordnungs
Kompositionen
##Spieler
Alternativ
Räumlichkeiten
##grab
Sax
wechselt
##Kolle
##amann
Haag
drin
##gewerbe
eingebunden
Unterhaltung
##ures
##kenntnisse
Bauvorhaben
##genossenschaft
Sorg
Militä
##omotiven
Besiedlung
geforderten
Syl
ordnete
##ungskraft
Garantie
kritische
Besitzungen
108
##lehnen
öffnet
Unterhaltungs
##Hin
##gift
abs
Sehn
eint
##7).
##opäd
Jobs
##veranstaltung
Orientierung
##äus
Enttäu
##fassungen
Auslagen
##antwortung
Ermordung
Aufteilung
##cin
Furcht
überzeugend
##spol
Maßstäben
verschlossen
##ützer
##grenzt
##jugend
Gelie
Magen
brasilianischen
gerü
##sverhandlungen
##orum
Pot
hilf
##Abt
fünfzehn
befestigt
sportliche
##Gu
Raj
Asp
##garde
##Finale
Ek
##ifer
Nag
Raff
Moskauer
Kandidatur
##zien
Mitteleuropa
Scho
##lagerten
indessen
##Schw
##mans
Lenn
kalt
ähnelt
Schätzungen
Minnes
unüber
##ferenzen
Radsport
##arbeitungs
erweitern
Autofahrer
Nebenfluss
Cass
Abfindung
##vid
Mul
1600
Schaf
Streitigkeiten
xx
##hode
kass
Under
Schätzung
##onanz
Antragstellung
##Gold
##marck
globalen
gekündigt
zitierten
##Luft
##freu
Lehrerin
Mediziner
zurückgenommen
##heide
##ündete
##geordneter
Gattungen
bestreiten
##Hz
##OM
Ganze
##haushalt
bedienen
Schuh
zerstörten
vermeintlich
##undete
abgel
Rausch
weichen
betreute
vorsieht
Begleitung
##Super
##plans
Knei
Alltags
Nicolas
##reger
##wärter
Energien
konzentrierte
Fron
betreten
Scheidung
Vertriebs
Font
Kavall
##abwägung
##gebrachten
hiergegen
Wiederholung
##OVG
106
##bären
konf
##Familie
Regierungschef
##On
1832
GRUR
##aufenthalt
Migranten
verletzte
##schuldnerin
##aller
Urban
Anthony
Frag
##wirkend
Gerichten
ukrainischen
##Prot
##Verordnung
Hauptrollen
Hochschullehrer
##abis
Gesp
##gebende
##köll
Kenne
ausgel
scheidet
Stuhl
ambul
jüngerer
Konflikten
preußische
neur
Karne
andern
Edition
Wissens
##präsidium
Abrechnungs
Staatsexamen
##/6
Benzin
Freundes
jenes
nehme
Mob
1844
##üchter
Bruck
Diesem
französisch
Hütten
primär
##arbeiteten
Verstoßes
Abänderung
##EP
schildert
##Rück
##över
##ürme
##abzug
##utions
##ronomie
dänische
Großstadt
brä
##ätigen
Shin
##altitel
##geltung
Fassaden
##zusammenhang
##itäre
fall
Selten
Assistenz
Pokals
diesel
offener
Internetseite
##400
Hospital
Wintersemester
Blas
Wirt
Platt
Airlines
##ungsbehörde
körperlichen
Rechtfertigung
Story
Turner
##Funktion
übergab
Auschwitz
organisieren
verschwinden
##Rot
Chen
Porn
##eiermark
angegebenen
Cav
Huss
Total
Sammler
vornehmen
Kommandant
orientieren
einverstanden
nam
##eigerte
##ugnisse
entstehenden
pa
##otti
Prinzen
Willens
Sot
Episode
zusammenhän
Erschließung
zurückhalten
##Mode
##cont
##ovice
Singles
kostete
absolvieren
durchzusetzen
##agan
1835
Invas
##unfähig
##vorgänge
Fitness
Tei
##allee
distanz
Dokumentarfilm
Worm
##sklinik
Renault
175
##arien
Hack
##griffe
korrekt
Zweitligisten
Gerd
Letztere
weiterentwick
gehöre
sexuelle
christliche
##schew
##angriffe
spanischer
##knoten
##ürzten
Night
2-
by
Laz
Produktionen
##MP
##ogl
ep
Leiterin
Zigaretten
##OR
##bR
##Club
Stor
Gräfin
##führende
Verkäufer
beantragten
##Orig
Heft
Prei
Lukas
gewür
illegal
Bayreuth
##/08,
Kette
Spektrum
##ausgleichs
Bundesstaates
BP
##Durch
Parkplatz
##Szene
##ilden
bewal
Befund
psychischen
geschaffenen
Stellungnahmen
##fasst
##becker
schätzen
Professoren
##Heim
##wirkte
pflicht
##assistent
hind
angemeldet
##läd
##uda
##üchten
##richtet
##roit
Susanne
baulichen
konsequent
##steilzeit
Industri
##nachmittag
Fahn
Oberg
Abbildung
Bundesrat
##inki
rang
manip
Flüsse
##eigentum
ansässig
Harz
Momen
ausgenommen
Gegebenheiten
##count
##ächten
VwVfG
Weiden
Bildschirm
Ök
Krak
##sektor
getroffene
gerichtlich
hervorgehoben
##deb
##Region
Tests
##beurteil
ständige
##idd
##play
Jimm
##müller
Commerz
Darlegung
1842
##antik
(198
##inburg
Abfahrt
praktischen
##Rat
HGB
Nazi
Ansichten
erfolgreichste
##furter
Jesuiten
Montreal
sonn
Irgend
Geboren
Festland
##bewegungen
Disziplinen
AGG
##armen
Befugnis
modernis
Aufstiegs
Four
Lücke
dominiert
Prinzipien
Abschaffung
Rug
unab
Botan
Erörter
Kunstgeschichte
HC
5.000
möglicher
zurückgekehrt
##arben
##roman
##etristik
Leinwand
verringert
Boy
Kali
froh
Moral
##ücksichtigt
Volleyball
##Station
##zugreifen
Geschäftsjahr
Edmund
Express
##produzent
konzipiert
Landessozial
##lekt
Skis
unterworfen
##äule
1837
##.2013,
treibt
Tölz
##flossen
Soziall
Milliarde
Klägerinnen
BAGE
##verbänden
Steigerung
##Deb
##OLG
##bedarfs
##oga
qualit
Georges
USD
hierzulande
##cs
§23
hess
Action
Vorsteuer
Urug
Investitions
Sich
Schmel
##zubringen
##ochte
dünn
Vorort
massive
##interessen
##San
nahen
Intend
Untergang
##Hel
##ippi
Ing
Schwab
Ausschreibung
##kels
Braut
Extra
Lesen
renoviert
Demonstration
##eneß
##irmen
Manip
Nebel
Buchen
Präsenz
Heilbronn
verurteilte
##quer
1843
Gült
##Stre
102
gestattet
Ingolstadt
historischer
##Saint
++
Diskriminierung
##ogie
Dev
Jordan
Anschläge
Gesetzgeb
##Ins
Gesamtwertung
festgesetzten
##Oper
##igny
##willig
##scheinend
Bakterien
kritischen
Belletristik
Protagonisten
##sthe
##Person
Kartell
brauche
Triebwagen
##oi
Gefangenschaft
Kum
##reibst
##später
Glanz
Public
Schwed
Flammen
Herzogs
##fürst
Genre
Flurstück
getrieben
##unus
Achter
deuten
technischer
Altersteilzeit
##Dis
liefen
Shakespe
Badminton
Landwirtschafts
##Air
##ränkten
Lothar
anwesend
##technischen
##pfälz
Conne
##ström
Pacht
##Jose
##erfolg
Mountain
##erbe
(§12
##testet
##eri
Trad
hebt
erachtet
Erfahrungs
revolution
##eing
##idad
rät
##inken
##schne
Symb
Datenschutz
##UN
##beton
pläd
spreche
Frühling
Kinof
Geisel
Straßenverkehr
##ränkte
##anstalten
Konstellation
##raut
##leister
Publikums
Vorliegend
##Gew
Erwin
Jahrtausend
##ede
##Fans
Zen
##aments
senken
Nordseite
##Drs
freut
##betreuung
Begleiter
Russischen
SO
##omaten
Queen
Genuss
Hoeneß
##sammlung
wöchentlich
lateinischen
schätzt
vergrößert
Clark
Arbeitsleistung
##Kn
15-
Engine
Epoche
Zentimetern
gleichfalls
##mine
Uran
##schiffs
wöchent
gesungen
§31
##Affäre
Glocke
Greifswald
Kontrollen
publiziert
##ächsische
Rittergut
##bör
##rict
##enturm
lernt
emotion
verheira
Umstellung
Verschulden
4:
Paten
##provinz
frucht
Fun
gäbe
Pilger
Projekts
heftigen
Chi
grav
Verstöße
schönsten
Auszubilden
interpretiert
Sieges
Himmels
Municip
Elementen
Anstellung
ermittelten
##dan
Rade
Anten
##izismus
Gewissen
##Bel
##Arten
##gräber
Global
Röntgen
Chinesen
##Tr
IF
Darsteller
1838
Bridge
Kameras
Serge
Absturz
Vorhabens
Betriebsst
##Mer
Moore
Ankara
decken
beheima
##As
##stal
Kate
Kies
Rinder
verwir
##dependen
##programms
##mere
Eif
Skel
Umge
##iedler
attack
Debütalbum
##core
Liban
Gärtner
beschul
derzeitigen
##bit
Jess
Stress
##ttembergischen
##rikas
##teles
Moll
Minen
Zwick
Wirbel
Anstren
Standes
Musikern
entfernen
##spuren
##glieder
Werkzeug
Schuljahr
##icki
Lip
Kairo
##versicht
Gerüchte
angeordneten
Mau
##lanke
##schütze
unverzüglich
##300
##etik
##öten
##esien
##grundes
Jänner
##naden
Kick
Ortsk
Versand
##sendungen
sinngemäß
Magister
Vorlesungen
Grundstücken
##/95
##büne
##ennamen
##ESCO
##helfen
Wohnen
##zuziehen
geborenen
Kfz
##äuber
##erhöhung
nutzten
##Korrespondent
freiwilligen
##Ac
##nest
iPh
Gitarrist
##-19
os
##Wenn
Memor
22,
##ardin
##bedingt
Reicht
derweil
schritt
korrespond
##käufe
ausgest
##wirtschaftliche
Alm
Öst
Bock
Vereinigte
denjenigen
##800
##irgend
Brian
Notar
##bewertung
Erstligisten
##ref
fa
##onda
##elson
Laurent
Wohnort
verhält
Bescheids
##Baden
##villa
Propaganda
KV
##metern
##issheit
##hir
##charakter
städtische
Bekannte
kurzfrist
aufgerufen
Gottesdienst
##court
##medien
##Mitglieder
zurückver
##Hier
##ather
##ringe
Airport
Hinterb
##öD
##ozy
##säure
##werbs
Okres
Zustände
zerstörte
1:1
##schar
##uschen
##Mod
##atra
Liby
Ritu
holt
Reflex
Amph
##metall
Willi
Jochen
##igi
Sah
##östen
Götter
Bayerns
Schreibt
Dimension
empfiehlt
beanspruchen
##/14,
via
Verwalter
##lem
##itat
##greifende
##ikro
Isabe
Gehalts
zweigeschoss
##wiegen
##schnell
Werkes
obliegt
##woll
##Gegen
Expans
Tendenz
Jubiläum
Asylantrag
Bundesstaaten
30-
##iertem
Dorothe
flachen
unterdessen
Maschinenbau
##fas
##atell
1839
##fische
Wiese
##unabhäng
Vollzug
günstig
Präsidentin
Dek
legitim
entstammte
nötigen
Chal
Ehel
hies
Richtungen
##olin
##road
verei
Betäub
werben
prinzip
regional
##forschungs
Einflüsse
Fußballer
angetrieben
rückwirkend
##paket
toll
Galer
Rückseite
erstellte
##maier
Chel
##Länder
##bremse
erzählte
konfrontiert
diesbezüglich
Kaus
##ometrie
Luzern
aufger
wachsende
Österreicher
##SSR
##Phil
##ydra
##Journal
Nassau
politisches
Vanc
2010.
plante
##qualifiz
inmitten
wünschen
Hoffnungen
wesentlicher
Menschenrecht
##drän
fair
nomin
##modelle
nichtig
Commerzbank
Agn
##munder
Alger
##ungskomm
Hauptsitz
##bog
widmet
Stadium
Elektronik
Intelligenz
Güterverkehr
##schütz
##breitung
verbreiteten
Isar
scheiden
aufschiebende
##Voll
NATO
##.2014,
Initi
Performance
Integrations
BS
##oney
grau
zwang
Grande
Theologe
erschwert
Vic
grö
##iance
##lalom
Melbourne
Abteilungen
tre
Gumm
Reim
takt
Lehmann
Unwirksamkeit
##lade
135
Sockel
Neumann
erleichtert
##LB
##hofft
##sebene
Beweislast
1700
Kret
gefl
Hitze
##EuGH
Lars
Palä
##sprogramm
gewohnt
Konzerns
Offensive
Stiftungs
erstattet
##dere
mäß
Filiale
unternehmen
##szlig
nerv
schwä
gewiss
##strategie
##sehr
##zogene
erzeu
Wälder
##uez
gast
Vorbe
##ausfall
Brexit
Sozialdemokrat
##ekü
1300
Flex
Stör
##Arabien
##rog
1841
Code
Foss
Spen
##chtete
Manusk
Kabarett
Klassiker
kaiserlichen
##uße
ATP
##ietern
2012.
erinnerte
fühlte
Nördlich
abgeschafft
letztendlich
##ohnen
##suche
schwachen
##Meisterschaft
##Hop
##erit
Rätsel
Teppich
heimischen
hinterließ
Sozialhilfe
Ausgrabungen
##altern
Körpers
Umbenennung
vereinbaren
Journalistin
beabsichtigten
Neuzeit
##wendbarkeit
##olt
gewahrt
belegten
##steilnehmer
Leistungsbe
##iate
##DC
strengen
##UC
##wöch
##erkannt
Howard
versagt
Begegnungen
Ding
##zufolge
ärztliche
entschloss
Zürcher
Sorgfalt
##zutreffend
braun
##arian
##ierre
Lyrik
Vollzeit
dargelegten
Differenzierung
kenn
##tegien
übertrug
systematisch
Zusammenbruch
##.20
Alf
heftige
neunten
Nahen
Ärzten
Letzteres
2011.
Kasse
Regul
Geister
Biologie
irgendwo
##ici
IA
Sv
25,
##zettel
Shang
gestohlen
verkehren
##geschnitten
Betriebssystem
##iod
##slos
UNESCO
##kommissar
##igers
Berl
Erscheinen
Klageschrift
Rick
Bosnien
zurecht
Überwachungs
EMRK
Pfle
alli
##krebs
##Metern
##drängen
##vollstreckung
##range
1834
##ometer
##senkirchen
##ografischen
Sara
Aufruf
##lligkeit
bereitet
##gate
Gam
Trupp
Helsinki
östliche
##nahe
Mühe
Ideal
Wirken
indirekt
Gulden
Pommern
##Kan
##oin
##klub
##leiterin
Fischerei
herrschte
Exemplaren
erbrachten
Kohlenstoff
tariflichen
CA
Pent
##innend
Putsch
##männer
Treuhand
geschätz
##disk
Lisa
Boote
statthaft
Solidarität
erweiterten
Einvernehmen
1836
Flughafens
##zon
Dag
##erste
##hörer
2500
harmon
Umfragen
vermittel
Bundestages
umstrittene
##/07,
18-
Strals
Wohnraum
vernachläss
##ABl
##ranke
Till
##aussichten
gelo
##mischen
Magdalen
getestet
Jahrestag
Festsetzungen
##atives
1821
##beamte
##cor
##reb
##kalk
Siz
Peer
lock
aufta
##jewitsch
Kreistag
grundsätzlichen
Belege
einzustellen
befragt
##regisseur
##gleichheit
Delegation
Psychiatrie
olympischen
neuem
##Syndrom
##ertoire
Verpack
berechnen
Philosophen
##rant
Lub
Fasch
##konzert
Debatten
Erneuerung
Versp
verkehrt
eingeteilt
Einem
Versuchs
explizit
##Pil
##egas
Hanau
Einordnung
chemischen
##zige
##otheken
geschützte
WDR
baden
##blättern
Wirkungs
Standpunkt
überwinden
##ject
##stoße
##wahrung
Generall
besetzte
##funktionen
verknüpft
Cheftrainer
grundlegende
1812
Rosa
Heilige
Einkünften
Supermarkt
erheblicher
##9).
##gste
verspä
ed
##vorm
##ransp
Stadtbezirk
##center
##preises
107
##äumen
Begeisterung
##ischte
Getränke
verdanken
abgeändert
##GV
Ried
##bruder
##ysteme
##willigung
Rin
cod
##ments
1817
360
Einwände
benötigen
Baumeister
Ont
netto
Ebenen
gewusst
Bah
##.1998
##right
programm
etablieren
##zk
Must
entz
jüngst
##lages
israelische
##ao
##ruher
##räumt
Münch
gelaufen
Vancouver
##rüder
##schön
##leitungs
verwaltungs
Vermögensver
Entgeltgruppe
##fonie
##verlässigkeit
##Schm
##odest
Sendungen
angeschlagen
gegenwärtigen
##äqu
Tee
##älern
Hobby
##oke
##nutz
Fren
Vatikan
richter
##zeitpunkt
Mitarbeit
ähnlicher
##sub
Kör
Weih
##bewohner
##behandlungs
Staatlichen
Fri
##komme
Wähl
Vorfahren
##rett
##writ
1828
##ittern
##gewinnung
Dienststelle
##azier
Sten
http
Garde
geform
verrät
Railway
abseits
provisor
ausfallen
Präsentation
Time
fünfzig
##jut
Ladung
finnischen
##Tat
##bricht
Draht
Econom
##gerechten
Großherzogt
offenkundig
##ipper
Head
wa
##sbach
##skrit
Filial
Verbleib
vereinigt
bestandskrä
literarische
##aver
##kler
##ingle
Guido
ließe
Steinen
seitlich
bestattet
##ftete
##genda
##gelernt
gebürtige
##PI
##erklär
Gitter
angeht
Handwerks
Weltwirtschaft
##urger
##flieger
verfügten
Metropolit
allgemeiner
freigegeben
##krut
Sier
##flichen
fortbe
##enträger
erstellen
Alternativen
16-
Karib
Metro
Hofmann
##öhm
Great
Konsul
Rog
ert
wohlhaben
##also
Cruz
##undern
Heiden
Nikola
befassen
##.2012,
##werter
auslösen
Weltrekord
Platzierung
##obi
##lligen
Foundation
##rass
Aub
§48
##gleichung
günstigen
##Armee
##droht
##hügel
##stöck
Fahrgäste
Stro
##weitung
##rud
##Arbeits
psychiat
zunehmenden
##tim
Toler
Vorsorge
Entertainment
##WR
Curt
Aufheb
##ikanischer
angelegten
zunehmende
##Staffel
Geschenk
Veter
Schlesien
Dokumenten
§124
Umgeben
##gesetzgeber
kanadische
€,
Meteor
##zutragen
##werkstatt
folgendes
##weckt
Fließ
Symph
##mitarbeiter
unanfechtbar
##igend
Plant
notar
##diensten
verstoße
##strebungen
kandidierte
Spekulationen
Laser
Brüdern
Cottbus
Ratgeber
Minnesota
##veröffentlich
##Was
Aden
##zahler
Dess
markt
##Stadion
Marmor
teilnahm
Anbetracht
##kurz
##hänger
landen
##camp
##loyd
##baidsch
##konserv
##mittler
##rauchen
geschossen
hinauf
vierzig
abgebildet
Widerstands
selbstständig
Johan
Streik
Treppe
Annäher
hinzuge
Anweisung
##eo
##entums
##ikalen
Könige
##stelligen
zugestimmt
persönlicher
##moder
Kircht
Papiere
aufrechter
befürchtet
Schulleiter
##PR
##essens
##maligen
terror
Reederei
zukünftig
##EV
##has
2008.
Gedenkt
garantiert
##elta
23,
Tram
senk
200.000
Eingrupp
Kommandit
verletzen
abweichend
##rost
##ension
Tiger
##Bereich
##aue
Tet
##teiligen
##Richtlinie
Augsburger
beherrscht
Plat
floh
achte
Einwanderer
nebeneinander
Beet
koll
Bewilligungs
rass
Chines
Parameter
Zielen
Landung
schreck
Anzeigen
Dortmunder
##verbund
Lebenser
Anzeichen
pla
Reife
##ancial
Pfeil
##würdige
Detroit
Qualitäts
##baur
##Kinder
Zwölf
befahren
##very
ele
Belgrad
##aufkommen
weitergehende
Din
##vester
Erdgas
Charlottenburg
Analog
mangel
verdrängt
veranlasste
FamRZ
neueren
##Sänger
Begut
Niederländer
SMS
unn
##indel
##windet
##änderungs
erlaubte
##ungsvermögen
Vorgesetzten
##Mot
##lätt
##utern
Jama
Common
schwanger
produzierten
##7-
##illo
Gän
Griech
Unruhen
frühzeitig
setze
##fehlerhaft
##note
Aven
Cant
Giro
Draft
Ecken
Torped
gegner
Besondere
Stadtverwaltung
##Metal
##teams
##nummern
architekt
rechtlicher
Satzungs
##wechselten
eineinhalb
##ehlen
Iren
Kälte
engeren
##:2-
Hey
Alice
Böden
Linkspartei
widerspricht
##epage
Hydro
Rasse
Ganzen
##interess
Stadtver
allesamt
versprach
Australian
##herine
##patent
##ulo
##track
Gard
##izität
##anziger
##bezirke
Werbungs
heimlich
Großmutter
##wirtschaftet
Space
trinken
##protokoll
wirksame
##missbrauch
Zimmermann
wiederholen
Abf
Nich
amts
Schiller
##sprechende
Beschleun
##Po
Elef
Maul
Tower
##scheins
Bonner
Innern
Magazine
attraktiv
entdecken
Verwandtschaft
##rönt
##seiten
##ifferent
##gespräche
Ereignissen
##leicht
##ouvern
Korps
Individuen
Verstorben
geringfügig
euch
##quenzen
Venezu
##ständigung
Heimspiel
überschreiten
Benachteiligung
##add
109
Häu
Guer
Hohl
##beitrags
oberste
Turniers
Gelsenkirchen
echt
kämen
skept
##Minuten
Johnny
Benennung
Volkswirtschaft
##can
Zelle
Ansiedlung
Vermietung
##lande
Riga
Chefs
Statue
Mississ
gefüllt
Scheiben
(1)
Cem
##zirken
Jimmy
##serbaidsch
##BG
Äqu
Advent
Tausch
Kolonien
aufkommen
demnächst
kat
##Charts
angesp
zitierte
Steuerung
Empfehlungen
##600
##pit
Logik
brechen
Halbjahr
Theaters
anschließende
Home
Kasten
##wertigen
##xx
AK
1,6
Olympische
##ippen
Minus
Raten
schär
Passau
##befreiung
momentan
Unmittelbar
Leutnant
Wasserstoff
Schuhe
Aktuelle
Fortbildung
##kü
##/06,
##hose
##swerte
##rischer
##verbots
##englisch
##zufinden
herausge
Belastungs
zweifelhaft
Sup
Rotter
Unklar
Begünst
§33
trennt
Flaschen
Nachkriegszeit
##got
OS
2014.
Kreuzer
fraglich
Ade
Ära
Bande
Ethik
Gordon
Vorarl
vorherr
Liechten
auffällig
Tarifverträge
##Hv
verlei
Schuldnerin
vollstrecken
##down
##sung
His
Boll
2013.
Neckar
zehnten
Archäologie
durchgehend
##brett
Hitlers
ethnischen
Priesterweihe
##.9
By
##lauen
##ological
##fla
Musch
Airbus
Ballett
sozialer
Boulevard
##ouv
##übte
hoffe
Gleise
ablehn
gemeinsames
Verfügungsbe
Gesetzentwurf
##edo
##iegeln
angeklagt
reichlich
Zuständigkeits
##etze
##noch
##asing
##liege
##onente
##wieder
Navig
Maßstäbe
steil
lauten
Lil
sur
bedeutsam
##osk
Buff
Tritt
Prüfer
Gesamtheit
zugehörigen
funktionieren
Oberösterreich
##DLR
Hemm
##vorgänger
Gitarren
Notenbank
##fund
##Gitar
Bond
##ildern
Verpf
angekün
Anmeldung
3:0
Marsh
##prozent
goldene
Bedürfnis
112
100-
Princ
Besten
Zuwider
schwierige
Gebietsreform
Umgangs
##überwachung
seltene
mg
Peru
##ogenen
Umland
zahlte
Filialen
##su
##/05,
##ulations
Stichtag
##ungsanordnung
##Not
Agent
Danzig
Langzeit
Polizist
irischen
##ija
##nde
dien
erließ
##frequenz
Amerikas
Biathlon
Fotografen
gewonnenen
Renovierung
##bing
Brett
Japaner
beiders
Maßgeblich
benötigten
##tour
##klein
##nisch
##auftritt
aufgefunden
Ves
top
Verhinder
administrat
Schlagzeilen
##boy
##tennis
enorm
Palais
Angebots
Rüstungs
Schreibweise
Kleider
fehlten
zeichnen
Datenbank
entkommen
##tentwicklung
Beispielsweise
Wiederaufnahme
##ümern
##atischer
Fertigung
verständlich
##iche
##uchter
urauf
##brid
##skap
##uerto
##abgaben
2010/11
Symptome
Römischen
Verdachts
##ols
Dopp
Längs
Reden
Sätzen
mithilfe
wettbewerb
##angelegenheiten
##stärk
1808
##palast
##kommando
Verletzten
##jap
1,8
För
##kular
1825
##sommer
Fristen
bisweilen
inhaftiert
Werbungskosten
Dance
abzul
Marion
unglück
##stellenden
##eler
spir
2009.
ästhet
tödlich
Favoriten
Intensität
Einbau
Transp
vertie
##betrages
6000
##Auswahl
##Magazin
Ähnlichkeit
Kit
TVöD
##.2009,
##intens
Geldb
Zuerst
##bekommen
leuchten
Mais
Robin
Karosserie
Sho
##gender
Periode
empfind
isoliert
drohenden
Schlussfolger
##Kur
##Kreuz
##kloster
bestraft
Übertragungs
Niederlassung
Wör
##gedanken
schlafen
##bevollmächtigte
##Dur
Ey
Ablehn
##weiterung
Weltraum
seltenen
verraten
gezahlten
vorgegebenen
##-5
##Fre
##irgt
##/2009
Englischen
Bester
Anderson
FBI
1833
Verfügungs
Generalleutnant
##stars
Disney
Betreuer
Landesamt
Jahrhunderten
Haken
##eistern
Meldung
erobert
##reitungen
Mindestlohn
##Wür
IP
kub
##elevanz
Speise
##OK
iHv
Vergnü
##schwester
Zylinder
fertigte
Toy
##Insel
##letzten
##weigerung
Ruth
##zehnten
Beiträgen
##instrumente
verbindlich
##gebra
Henk
Porzell
dargetan
##auftragter
Journalismus
abschließenden
##oba
##main
##ässe
Tall
Seelen
Westseite
Abweichungen
Polar
me
Jap
##bauern
##heblichen
Rechtskraft
Aer
##Wasser
Laura
stein
Butter
Bauwerke
aufgestellten
##rov
Viv
##drama
##atlant
Stuck
##beamter
Kletter
##iblen
1831
Pech
##jährlich
##log
Ple
##prakt
Schmitt
Erlebnis
steuerlichen
Modernisierung
##etor
##tauscht
Kuppel
##sproblem
Glasgow
Ermächtigung
##VV
GM
Brün
##ikerin
Marktes
schickt
##Pap
##Diese
Fire
impl
Fächer
Nacional
##omo
##angel
##wänden
Tromp
Colorado
Porträts
vorzulegen
Strafverfahren
##ogne
##Abschluss
Gouverne
Hauptstraße
##HS
##ef
Orle
Melod
emigr
Racing
Bapt
Irrt
Ihrem
erworbenen
##verhältnissen
##./
##bol
##key
ku
##utze
KPD
##edonien
fremde
Ansprüchen
verwandelt
Veranstaltungs
##gell
##Johann
##ifizierte
brauchte
Nominierung
afrikanischen
##stin
##Finanz
Füßen
##ächtige
2013/14
horizont
##Wor
Lack
Historic
Christentum
Sid
##flekt
Light
##größten
40.000
explod
Politikern
##</
##Aber
##Kanal
##platzierten
vermeintlichen
§19
Kürzung
gehörende
##rasse
Pius
##igenden
Suizid
##förder
Freiwilligen
##IL
##ereig
krei
Nigeria
Überlieferung
114
abgek
Kastell
Flughäfen
##ogene
##struppen
Erzbistum
Geldstrafe
Haltepunkt
##ML
pri
Paket
Verarbeitung
##best
##hatt
128
Stone
Wohlstand
Erledigung
Windenergie
##testen
genommenen
Gleichheits
Harr
häus
##gottes
widmen
Parteitag
besagt
Liedern
Diensten
Bemessungs
Karlsruher
australische
##Generalsekretär
imm
erwarteten
Mathematiker
##ango
##oldung
Treib
Ultra
repar
Hunger
##ärmen
Sultan
Rhythmus
Abwägungs
Häftlinge
##iami
##viert
Kronen
##anbieter
),
durchs
vereint
wünscht
##Auft
hüb
1400
##üttern
Deport
Apotheker
Potential
gefährden
10-
Verab
##regionen
Bemessung
hingerichtet
##konsum
##drungen
Bestimmt
Erwartung
Schwangerschaft
##erts
Verg
Zeichnung
##/5
Zähl
Bolog
planen
summar
kleinste
Neuköll
##politisch
orthodox
weiterver
Hawa
Board
Teleg
Verzwei
Stadtteile
Rechtsfolgen
Lock
##osophie
signal
werten
erleichtern
##übten
##olution
Android
Nazis
##gerichten
Resultat
Evolution
zukünftigen
Ramp
Breis
Pedro
Sogar
Akteure
absoluten
##sog
1,4
Pank
1997,
Spand
Malays
Motivation
Wiederwahl
veränderten
bekanntgegeben
Wetz
Birken
gewarnt
Kompanie
##otum
##sees
##sted
Tän
##iedlungen
verzeichnen
Bundespolizei
##otop
Unsicherheit
##NVO
##asar
berufs
dasselbe
##Präsidenten
##-"
##Staat
Bagd
tags
##formel
Zertifik
angebliche
##ausstrahlung
entgegenstehen
##rou
##aman
Grass
##vorlage
Personenverkehr
Anwälte
Schnabel
Prüfungen
Adams
##Zentrum
##Col
1819
Füße
Hasen
##geschäften
Schreiber
gewürdigt
beschränkte
Bürgermeisters
##imum
IOC
##uston
##kaufen
marsch
Schiffes
bewilligt
verkörper
dazwischen
eis
##Inseln
##Wettbewerb
##ated
50-
Pia
Stö
##bringer
##lieferten
Dirigent
Hiergegen
Naum
##ieller
getät
commun
ableiten
Abteilungs
1824
Speyer
Private
Hilfsmittel
hervorgegangen
111
Anm
Ji
Caes
Iris
##reuten
2009/10
illegalen
Beobachtungen
Leid
##hoheit
##schafft
Kriege
Stoiber
niedrige
wirksamen
##ulabschluss
Ausstrahlung
Restaurierung
beschäftigten
(30
##achtal
Eingliederung
Hoffen
Gebietes
##ungsanspruchs
##Dr
##eichef
begeben
zulassen
materielle
wiederkehr
Gerichtsbarkeit
##ists
Täu
##rator
##essions
##nachrichten
##dB
AF
##oker
##rümm
##ingst
Ertrag
dieselben
##werkes
Graph
menschen
auferlegt
Politische
§24
Schubert
##alisierten
Raumfahrt
Volkspartei
geleisteten
null
Trikot
##ativität
Mangels
auffäll
überlebt
vernichtet
##AC
##arin
Dil
##schmerzen
Tagebuch
Schulzeit
Informatik
Übersetzer
Dienstleistung
##gst
##head
##ünen
Liegen
Stewart
##rike
##grube
teure
angehören
bekämpfen
Indonesien
aufbewahrt
##1),
##Außen
Zügen
Schwäche
abgestimmt
anfänglich
mexikanischen
##ours
GbR
Releg
##satzung
Granit
Liberalen
Bedürfnisse
institution
nacheinander
##00-
Vision
Cannabis
geforderte
##ske
riesige
##stattungs
Popularität
##atom
Gig
Kings
besiegt
Verzögerung
Demonstrationen
##örpern
Bezahlung
therapeut
ausgeprägt
hl
##quem
##.2011,
Quote
bestes
Festnahme
Berechnungs
aufgeworfen
2015.
##eichern
Bischöfe
Brigitte
dunkle
2011/12
stoppen
Ruinen
##izz
Schaum
Ausspruch
Baustelle
Vollmacht
Dpartements
##versicherungen
##EK
##ielen
Tomm
##eitigen
Diesmal
##operation
##skontrolle
bearbeitet
Pauli
##frieden
##kritiker
Statist
unseres
##:30
##cos
##Code
##rugs
Hän
ruh
Armstron
Nationale
Wohnhäuser
nachträgliche
Lagen
heiße
1809
##stagen
Austritt
geführte
Auer
##heraus
##feldern
Franziskus
Pos
firm
poly
Crist
BauNVO
##shut
Fix
##former
diskutieren
§28
##Heinz
Ivan
Individu
Missbrauchs
BK
bewirken
##Ham
HK
##coln
Formul
##aßt
##Pass
##anfang
Ellen
Kennedy
beibehalten
Bürgerschaft
Kongo
folge
Gepäck
eindrucks
Wehrdienst
##>;
total
##ratshausen
##lse
##phe
25-
##thiop
##können
##laufbahn
##Schwei
##dozent
wertvoll
##ardt
düster
Erwägung
##farkt
##onyme
Uruguay
Leitungs
plausibel
Bestandteile
##opath
Fang
##izip
Teilchen
Wahlgang
Bundesbank
Equ
##ering
##leppt
2016.
##Tochter
ganzes
Kavallerie
##betriebnahme
Verschieden
166
##beide
1822
Gutes
Zeilen
ungerecht
Bent
Esch
fördert
Physiker
##Fo
Khan
avanc
Sitzen
Slalom
Philologie
begrenzten
##arrt
230
§25
##Senats
glatt
##yll
Anschaff
Schmetter
zweieinhalb
Zurückweisung
##othek
serv
Claude
Orleans
etwaigen
gebauten
##issa
##ensis
##okals
2012/13
Aktivität
Financial
Technology
##Gra
##andie
##stämm
##ysler
Palm
##gipfel
Anthrop
Heizung
Begründer
gleichsam
Entlastung
##StZ
##öhnt
(...
Belei
Georgia
Bindungs
abwenden
tatsächlicher
provo
##ätigung
Revier
Zerstörer
steigende
##card
Hohe
trennte
Obersten
Oberbayern
betroffene
aufgegriffen
##apt
##stabil
##sprodukt
##ürzungen
Überfall
##rina
1801
##alischen
##eddeutsche
neunziger
##irma
Pfand
bloßen
Verteidig
Geschlechter
##3),
(197
Pall
##stößen
Gattin
##spektiven
Ebersberg
Flensburg
##lieferungen
inhaltliche
demokratische
Rost
Theorien
abschließende
##Bad
##iak
##schwä
Nenn
Arztes
##getriebe
Lokomotive
##Vide
##onial
##wiese
Ernte
emerit
Quanten
Differenzen
##bedürftigkeit
angetreten
Militärdienst
##ähle
Kelch
Lieben
Rechner
Diplomaten
##rogen
Berk
Apoll
Elektronen
##uba
Borde
##staates
Santiago
Sponsoren
unentgelt
fortsetzen
Preisträger
Vorgehensweise
FDLR
Reichsk
Fachleute
Ortsteilen
Königlichen
ausreichenden
##steige
iPhone
UK
##iard
##paare
Andy
Order
Tragen
##Les
##steu
##früher
Dingen
Tasche
Michail
Mittern
Politikerin
abweichenden
##pos
röt
Karol
##erstattung
Aktionäre
##preisträger
Fußballnational
##sar
TH
##künstler
Goldenen
Slowenien
##rod
Kiefer
lauter
entbehr
komplexen
Herstellungs
gleichnamige
##/98
##ossa
Lon
Jane
Pfor
Unzu
Filmem
Graham
Paulus
##sstruktur
Elektriz
abgezogen
Böhm
Hacker
Südlich
Skulptur
Gültigkeit
angebotenen
medizinisch
##eley
Grundbesitz
eindeutigen
##Paul
2008/09
Verfall
##marschall
verwickelt
eingeführten
##/199
Fut
1807
kurs
Minden
Verspät
verheer
einstimmig
ergangenen
##ehre
Reiz
##läufen
##malige
2007.
##ungskomp
folgend
Independen
##arium
wozu
##amment
Arbeitsentgelt
##ashi
##Stein
Stoß
##gebäuden
Ausweis
verpasst
##wirft
##werbes
##konzerns
Landstraße
Kiss
##anfall
##ristet
verzö
Ausprä
Mobilte
benachbarte
Wass
Exekut
Carsten
sowieso
Ausschusses
##DK
TA
§21
sinkt
Litauen
Missouri
Motorsport
BVG
Werten
aufbauen
streitig
scheitert
rut
##ielte
Pensions
unbekannte
Brück
Weiss
2014/15
Schlangen
einstweilige
##delt
##griech
##undung
Prager
interne
auswirken
Wiederholungs
Gerichtskosten
Zag
##ikale
Glock
Ziegen
Indizien
Techniken
Geschädigten
##iza
Käfer
Effekte
Ostseite
##zusprechen
trainierte
eingegangenen
ausgeschrieben
##imi
##jord
7,5
Afro
stärkste
Krankenhäuser
Bac
Frey
Harb
Harmon
PR
##sons
kurd
Medium
##Friedrich
befristet
##itär
##pokal
##üchtig
##ianischer
Edinburg
Prostitu
freiwillige
altes
mächtigen
Glücksspiel
Vegas
Zerem
##Millimeter
1798
Mantel
Baseball
Strahlen
untersuchte
Gewerbegebiet
Ce
Qubec
Mythos
Stämme
##festival
Stadtzentrum
##Krieg
Bilden
Verträgen
Steiermark
geheiratet
##TH
##olas
Sla
Udo
Angl
##gestell
##handeln
geschäfts
116
310
Isa
Over
##aufbau
alarm
Marktanteil
Studioalbum
##cester
Anspiel
genießt
geistigen
##Eisen
1829
Cook
##rächen
Backstein
Verfügungsk
##Volks
Grön
##Festival
##zeitliche
##netzagentur
##äums
##ärchen
##unglück
Titeln
##2),
##pes
##Herr
Hipp
Billy
Meldungen
Mississippi
ausländischer
Schlager
Hildesheim
sozialdemokrat
Vertragsschluss
##Mal
sorgten
Vermarkt
##.1997
Chap
minim
##ssitzung
Wiscons
bemessen
fiktiven
verhängt
Expansion
Bestseller
Versicherungen
##EO
Dete
##verlag
dekor
besuchten
Schwerpunkte
30,
Dak
Fame
Adopt
Pyram
Queens
gestoppt
Abmahnung
Schenkung
vergleichen
Umweltschutz
Zivilprozess
unzutreffend
öffentliches
118
BAT
auftrat
Herstellers
Lucas
Patron
District
entdeckten
Brandenburger
##-17
Low
##höhle
lokal
Holger
##Wegen
Hoheits
Bodensee
verwundet
übersehen
bewältigen
##falle
1996,
##schwemm
Obdach
Walther
Rundfunks
gewährten
zugerechnet
##bögen
##wirkungs
Drachen
##sbewegung
Heranzie
Kirchturm
gewechselt
verringern
##anbau
warnen
Entwürfe
Zentrums
vorliege
Zeitalter
##arifvertrag
Cad
unend
##pedition
Erholung
zerstören
erkennende
##dpa
##straf
Lech
##spielt
Monopol
##stellende
verleihen
Abschnitte
##parat
##ittert
##helferin
beginnend
Senatsurteil
##.197
Uhren
fliegt
Erträge
Evangelisch
vorbereiten
##tat
Autors
##atorisch
Francesco
beanstande
Traditionen
##iren
tier
##knecht
Diabet
Engels
Anlässlich
darstellte
##uy
##anes
##warte
Lipp
Niedergang
zukünftige
grundlegenden
lebend
zukommt
aufgesch
ermittelte
Creek
##ference
Toleranz
großfläch
Lese
##dingen
##wender
Gebirge
Segment
##onner
##christ
##ptions
Billig
auftritt
vorherige
##teilig
gewicht
ua
##bnis
Ruhm
##bringt
##eschen
verbl
unzähl
Freizüg
##giene
Sony
Siegel
aussieht
##angt
##opel
mitt
##marine
andert
Atlanta
gebaute
Gymnasiums
thematisiert
##lyn
pers
##profil
Panik
Rassen
Sexual
##esie
##Mails
##ungel
Klarheit
russisch
westlicher
kommunistischen
Lug
RVG
Pilz
Rott
##gewinne
##mündung
äußert
##ungsbedarf
Unentschieden
Cel
gestört
Prognosen
ungarische
wenngleich
Evangelische
Landschaften
##itters
##umfang
Bastian
Kirchspiel
verletzten
Rechtsgrund
Bed
quant
Server
sogleich
zeitweilig
gefährlichen
##abent
##echen
##igere
Mittels
Vernunft
teilzunehmen
Senior
Disposition
Jas
Gonz
beheimatet
kennengelernt
##Schl
Cow
##euert
Kilo
##archen
Chart
malte
##ädagoge
Fantas
Wäldern
verschwand
Celle
innov
Mehrzahl
Gesprächs
Intellekt
##anon
##motiv
Sack
Taiwan
teilten
Albanien
##Wirtschaft
##_3
bemühte
nannten
selbstständige
AL
##Ball
##heid
Sop
glaubte
bestünden
Fäl
Oden
seel
Zeche
##opplung
##reundet
Naturpark
Olympiast
Substanzen
betriebenen
##ymne
##lowen
nack
##herzog
direkter
sämtlicher
##roth
you
Pick
Sund
rufen
profitiert
einzubeziehen
##Rhein
Hunt
innehatte
heutzutage
##Hit
##empel
gewei
##staffel
bezwei
##schlacht
formell
##ungsbefugnis
##föG
##sell
##Soweit
Erwägungs
jüdischer
interessante
##arctic
##massen
Havel
mangelnde
schlüssig
inszeniert
nachweisbar
##rizona
Tötung
##Ul
##iby
##ünkt
Garnis
Deckung
relevant
Rückspiel
##ministration
##rake
Korb
Miami
##elegung
besorgt
standard
Ergänzungs
Fortschritte
##ew
##load
Mov
böhm
##studio
##wurzel
Fraktionen
]
March
super
Powiat
hellen
144
##bildes
Teher
##okratie
Nordsee
Attentat
Vollzugs
Eingemein
vergangene
Realisierung
nachzuweisen
##lov
##zgl
##zio
sü
Neut
Libanon
Prominen
Monarchie
Sportwagen
##busch
##llige
Echt
Hamp
Elfen
Treue
betätigte
##werf
##pfels
1802
kühl
Zugrund
Erwerber
Geschoss
Rechtsanwalts
Laf
##.2010,
Wüste
##zuteilen
Militärs
Zeichner
neuesten
##ssicherheit
interessierte
##jak
##emmt
Loc
(180
bist
Köpfe
flüch
##gü
##kteur
Können
Schirm
##befangen
Ehrendo
Endrunde
komplexe
Autonomie
schwarzer
türkischer
##mak
slaw
Kolum
Konten
Liebhaber
Universal
wiederauf
Altersrente
Departament
##iose
##phal
1826
##ferien
##fänger
Monika
Bauzeit
Angriffen
##otz
§52
Wäre
Sorten
Ausgehend
erloschen
nachgekommen
##Gener
besp
handle
zustimmen
##hyd
PKW
Salt
##eignen
Spion
##attungs
Ronald
Erörterung
##bzw
ausb
##anteils
Schokol
dauerhafte
ausgetauscht
überwiegende
##eng
Mordes
zusteht
Referendum
ordentlich
##bescheinigung
Heranziehung
122
Pfei
warm
##linden
Kelly
##vergenz
##prozesse
Geräten
Verzöger
Entwickler
Technische
##facht
aufnahm
Teilweise
Kommunisten
gewerbliche
wiederholte
Adelsgeschlecht
op
Japans
sonder
##zukommen
Stasi
Welten
Fürsorge
Suf
##treue
Strafra
Invasion
Überschreitung
Nan
##zeuges
Prince
umwelt
aufhalten
Ausweitung
Biographie
Überschrift
Nukle
elter
schme
Sofort
beziff
##ausenden
spendete
erfordern
aufgelistet
finanzieller
##rack
graus
illustr
Webseite
Politisch
intellekt
##hinein
Mitch
##alliste
Schreck
Edinburgh
Fürstentum
aufsteigen
Gemeinderats
##Maxim
beer
Vortrags
Einbürger
Kreuzberg
##unterbrochen
##ungsvertrages
Sommerspielen
##It
##Tri
##erhalt
##rückte
Virus
autor
Söhnen
Messung
kompens
*
##astrophe
##einsätze
unangen
165
Touren
Konzerten
Lebzeiten
angefangen
##rier
Boeing
Estland
erläuter
##aldirektor
Programms
aufgeklärt
(§5
abt
##feste
##ypoth
Maut
Messen
realen
Zentren
Verletzungs
##vom
##zeß
Fat
wisse
Mongol
##einfluss
##mehrheit
##reibungs
verborgen
griechisch
##Rund
##/2004
##ilton
Carb
##ppchen
Rapper
Komitee
polnischer
verstärkte
##blö
##pur
Lutz
Äthiop
##schaltung
Konzerne
##ergebnisse
keinesfalls
rumänischen
##anforderungen
##DO
AA
Verp
Antonius
stärkere
entfernte
Islamisten
anderthalb
Bundessozial
29,
##Daten
alltä
##schalten
Vincent
Absicherung
ungewöhnliche
##sachen
##zahlungs
##besetzung
##Wie
##oka
##strö
##Trans
Wüsten
Ansbach
Homepage
enthalte
Spielbetrieb
##him
##gefü
Wöl
##cticut
Vorhanden
durchgeführte
##Ser
##Vier
##atta
##ieters
##spektor
2015/16
Einholung
fortgeführt
##unz
##europ
UdSSR
##schenkel
besetzen
##architektur
Vermittlungs
Marokko
##ucc
Us
Hansestadt
alternative
Kalenderjahr
##Mat
##oner
film
abgesagt
Unterhaus
kennenlern
Entstehungs
§32
Bruce
##beziehungen
Gaststätte
##ampagne
Sofern
Anhängern
äußersten
##anzt
##etal
##üttet
Emma
brannte
Shanghai
Befragung
geschicht
opp
##ziffer
Vergessen
Schlagzeug
##uden
##löste
##design
Ralph
Skispr
nordrhein
##klin
Guy
kos
Welter
##ästinens
##ssituation
Freilassung
Konservatorium
##stau
Kei
##kraut
Wern
##heimen
schützt
Potsdamer
antwortete
it
1811
Arbeitsgruppe
##IG
##Aktien
Ansätze
##deutscher
Asteroid
##äpstlichen
##ausstellungen
lux
##grüne
enor
Salon
##widerung
Einzelne
Fernando
benutzte
dreizehn
Publikation
wechselnden
Plak
kenne
Recherche
Stralsund
##scheinungen
##8).
##avier
##boote
##nahmt
Behr
##behör
##ualen
Mast
nächt
##zwanzig
überwacht
##dal
AM
##Erfolg
##Mittel
##wettbe
Porto
Staud
##ursache
Lieber
##verdacht
Theatre
Wünsche
intensive
gehaltenen
vorgenommenen
##rung
Spree
della
Armuts
Bagdad
Leider
Teenager
beworben
beeindruck
geschuldet
##untersuchung
Meeresspiegel
zü
##anta
Sucht
Signale
Pauschal
vorstehenden
##holte
mußte
anscheinend
##azit
Luise
Posen
Generals
Gesichts
Folgejahr
schwimmen
Mitternacht
26,
§47
Expon
##wässert
Ziffern
weitest
gedruckt
einseitig
widersprechen
Nit
Cock
##Lebens
Anmer
verjähr
##verfügung
##zeitungen
günstige
Herrenhaus
Brä
##lichter
##retungen
hölzern
Vorträge
unerlaub
abzulehnen
Kompetenzen
Volontariat
ordentliche
##qm
##igh
##blig
sek
##reibe
Card
sagten
betraut
##institute
Beförderungs
zurückkehrte
##splant
kauft
Bahnen
Steffen
##leiß
##ping
Jahn
##leidung
Ehesch
Musikt
##bab
Apfel
Little
Dynamik
sachliche
Geschäften
Realschule
Schreibens
Altersvorsorge
##hos
Kalt
##drucken
25.000
Genfer
Strauß
Madonna
##niederlage
stationären
ägyptischen
##kreu
sort
##grünen
runden
wörtlich
124
##essee
##obile
##rence
##flotte
##willen
genutzte
##phin
##sbek
##zeichner
Admiral
##rankheiten
Befreiungs
eingelassen
teuren
Apotheke
##essur
##ischö
##opter
Lena
suchten
CS
zwöl
##wäsche
1995,
##preisen
Karibik
Ortsname
Neuordnung
uraufgeführt
Anwendbarkeit
Staatspräsident
##Aust
(14
NGC
##losse
misst
##Univers
Austria
geholfen
anzubieten
##bens
Nort
Mönch
Anleihe
Stücken
Communaut
##ude
##imon
Gib
Isra
Mozart
Podest
Schwieger
Torschützen
herkömmlichen
Gla
Reb
##stahl
##Verkehr
gelben
Lincoln
##geschritten
aneinander
Continental
nachfolgend
spezifischen
Fachhochschule
Maiz
Moss
klär
Magist
Devisen
Konvent
##Lo
Tyr
##eiste
##ändlern
Elektrom
illegale
Richterin
Nachprüfung
Rechtsstaat
Studiengang
Mitgliedstaats
##ält
Ue
##Wohn
##anner
##traut
1790
##Jahres
##ussion
flank
spekul
Abnahme
##bedürfnis
##ähnlichen
Analysen
Ausstieg
Blütezeit
verfallen
##büttel
Betrug
Chromos
abgenommen
kirchliche
umgerechnet
Set
##belle
Villen
beides
Cameron
vollstreckenden
##beob
Bologna
Kolumbien
Namensgeber
versicherte
##Bus
klag
Blech
##enswert
förderte
kombiniert
eingebracht
##Staats
##iftete
Rügen
Pausen
stimmten
Rotterdam
Wahlbeteiligung
##hom
SP
##bebauung
objektive
Aufrechter
##arg
##riesen
##umsatz
##amerikas
Treibst
gewordene
muslimischen
Crow
Hätte
Lausanne
##alente
Biber
propag
konservative
Yam
herz
Agenda
schwäch
##spflichten
Windkraft
aussichts
Gegenstands
ausgehenden
##arier
Lekt
##anntes
kommend
##seinkommen
theoretisch
##ärs
##ragung
Abgas
räumt
exklus
Kärnten
##kilometern
übersteigt
Todesstrafe
##orca
##Fiction
##schwanz
Erzähler
##instrument
Armstrong
Gastronomie
Berechtigung
Landesstraße
##aber
Tante
gefäl
regiert
##upe
##rasen
Kahn
##.2015,
##greift
##ategorie
##denklich
##faktoren
Nachfol
##geschwind
##hub
##:200
1805
Dekor
empir
##höchste
##Dynastie
##parteien
BImSchG
Teilhabe
that
meldet
scheiterten
##melde
##gesund
##öhnung
Range
Konzepte
maßgebend
##RT
Sehens
Beliebt
Jonathan
Zugrundelegung
##rah
bo
##mitz
verschl
##gium
##gewählt
Libyen
fester
verbieten
AB
Nähr
Strop
Schmerzens
Unterseite
eingereichten
##',
##Den
BGBl
gebr
##gattung
prägte
##forderungs
Marseille
##aida
Scheid
Zusage
##wirtschaften
Instrumenten
Grundgesetzes
##Bat
##grat
##Kunst
2006.
Ostern
##standards
Klinikum
Leonhard
renommierten
##utta
Dennis
Beschwer
jahrzehn
##Union
gerin
##essungen
Rid
Ontario
alkohol
##produkten
ausgezahlt
Sprengstoff
##vorstellungen
##See
##öscht
Dokt
kreu
##standet
Untert
nähere
Kurzfilm
Antarctic
Anfechtung
Gerichtsbezirk
##Cent
##Sonder
BAföG
Melodie
Auslöser
verkürzt
Problematik
Schadenersatz
FK
##ärkt
182
Lak
##bourg
##katalog
abzüglich
schlimmer
##hund
Emm
Anwalts
Favorit
##>).
179
Zwerg
##verbote
überaus
Bismarck
Grü
##ließe
väter
weitem
##ucky
§27
##uscon
Bürg
Lith
##ädagogische
Schwarzwald
Sächsischen
systematische
Ryan
beid
Erdöl
Kliniken
Infektion
Messungen
##itch
Vierte
position
Mythologie
japanischer
fur
fäl
bibl
Korea
Märkten
Blättern
Bundesamtes
Abends
##spolizei
erweisen
liberalen
wenigsten
Anschlägen
Beteiligungen
##idas
Posit
alp
Arsenal
##ministers
gelangten
##spanne
Gestapo
beanstandet
hervorgerufen
erstinstanzlich
zeitgenössische
133
Ted
##ortes
Pull
Grill
##itation
Kronpr
Dynastie
Protesten
Ole
Quad
Radar
errechnet
mutmaßliche
##voraussetzung
##sal
157
##gewährung
Zuschuss
Repertoire
##0)
##pez
Abb
Ley
##Reich
weswegen
MS
Nikolai
überregion
Erlös
räumte
ergreifen
Bak
##worter
##rechnen
Venezuela
ununterbrochen
##Lie
2:1
Trick
zuges
Nachhalt
##maz
##preuß
Kemp
Monaco
Vorgabe
neutral
Besprech
zweitgrößte
gewechselten
Ny
dot
Bemerk
Schaff
unverm
Gehäuse
Pes
Ernest
übertragenen
Pfe
Kabul
##gelegene
##ausschluss
##.2.
##Prin
##genau
##zeits
Death
Herzin
##strahlen
Apostel
letztere
SD
##ofen
1823
Erbfolge
ergänzenden
##irs
27,
Bußgeld
intensiver
##tiere
Loren
Puerto
erwartenden
Einzelhandel
Personenkreis
##FDP
Gedenken
vorsichtig
##Hil
Götz
##inenser
strahl
gesenkt
Gewässern
auszuüben
##5).
##lia
rat
Mega
##Ungarn
##ammlungs
Folglich
angelegte
gezeichnet
einsetz
gewollt
Vorabent
jüngster
Gesichtspunkten
##anga
Nahe
Whit
##ökonom
Ausge
verbleibt
Supp
Dutzen
blickt
##arktischen
eindeutige
vertretbar
Hl
##Satz
Gun
##fizite
##zugang
herstellen
Bundesagentur
HS
##herz
tri
##Autor
##vorteil
Hawaii
Mönche
sorgfältig
Tw
##flut
Alba
##giebel
geeinigt
psychische
Wu
##lieder
##angebote
Gesangs
Russell
herausragende
##lli
##Oder
Logo
##ousine
Übung
Überzeug
##aufklärung
übergegangen
##Ta
Tont
Anbindung
##Glet
##iela
Fürth
Sonst
nötige
rechner
Friedhofs
##ungsbedingungen
Bd
NDR
Cord
##spektion
##pauschale
erlernte
Immissions
verbreiten
##umpe
Hud
##rannt
1827
Blind
##abstimmung
1,1
stoßen
Folgendes
geschenkt
VR
FFH
##Grüne
VersR
Kaufmanns
Enttäuschung
##rena
##anton
Edgar
Sachs
Franco
Einfach
Bauweise
hindurch
Rohstoffe
Stal
Melde
##Weltcup
Benutz
gesendet
schenkte
erkennenden
Menschenrechts
##Pop
Falk
##olische
Fleder
bejaht
Sondern
Strafen
eingewechselt
Wat
##stopp
##gemälde
alters
##nachweis
schöner
##flüsse
##ickten
fühle
Ochsen
##partement
vorkommt
##Rom
bemän
##kischen
Bienen
größeres
beeinträchtigen
##direktion
entsprochen
Medikamenten
##7),
Run
Roboter
##alisierte
Bestände
professionellen
##DAC
##prem
eth
verschlech
Regierungschefs
(2)
Frö
ther
##papiere
Labour
Prämien
Erfassung
Mountains
Stipendium
inspiriert
angefertigt
Folk
Krön
Sofia
Dynamo
Auftritten
Individual
analysiert
Leistungser
##vic
DC
##inas
##inie
byz
##große
##lerin
##eisten
Lloyd
Stolz
Wänden
Sportarten
Wettbewerber
Klageverfahren
sozialistischen
##cla
##ratz
##ulver
Zaun
wüten
Harris
Prophe
vorgelegte
##Beit
unum
Antik
Ortskern
überholt
##bewusstsein
Palästinenser
##ON
##ands
Befäh
##führend
gefühl
Buchstabe
Vormittag
Marktplatz
##gegenstandes
##.16
Plas
harm
##rippen
Rugby
Stief
Franch
doppelten
Unabhängigkeits
Spazier
Zeitgenossen
##Sal
##Origin
Louise
Erzieher
Porzellan
vertrauen
tropischen
##iom
las
§44
##apolis
##ranche
fünft
Nelson
Sterbe
##Dat
dA
wem
Fiat
2.000
Hilfen
Ringen
##unterschied
##stüm
Birg
Mort
lohnt
##legenden
drittes
Quartier
Aktivisten
zusätzlicher
Fehlverhalten
diplomatischen
##Fach
330
##agent
##intern
Kanon
fasst
Stause
Säuget
##undzwanzig
Nachweise
Abwicklung
Erinnerungs
ausgefallen
Höfe
##felden
unnöt
Fenstern
darzulegen
spezifische
##informationen
Hauptquartier
123
Allee
##ängliche
##flugzeuge
Schläger
Apotheken
Elefanten
verhandeln
##kau
650
Blu
Let
wiesen
##Pre
##rade
RAF
##arest
##älzer
Änder
Autobi
Staffeln
entfalten
bedeutendste
Stie
vorlegen
Klageantrag
hinreichenden
streitbefangen
Mör
##Mitte
##Fahrer
jemanden
Philharmon
erstaunlich
Fernsehserien
##ady
##strei
Zorn
reist
künstliche
Montagabend
Liechtenstein
5,5
wählt
bitten
Homburg
##senslalom
320
FIFA
Forest
Modern
Dividenden
Interessenten
##4),
Goldene
geflohen
konstant
##beteiligten
sicherstellen
Lehrern
##ungsgemäß
geschaffene
kommentierte
##teneg
einnehmen
##usa
Erw
##links
Lauter
Fotografien
erschienene
ordnungsgemäße
##AVG
Schen
##räglichkeit
Haftbefehl
Engagements
Beitragspflicht
##arme
XVI
Maas
Rapp
##stimmten
unwider
##reichsten
Hindernis
Jugendlicher
1793
Uner
Väter
##Maximilian
sc
##hals
113
codice
Misstra
Befürcht
Religionen
##iuse
Bret
Vall
##justiz
Illust
Zister
##iG
4)
Ler
Verdi
lehrt
##eldeten
##lagerte
##spitzen
##Verhältnis
Berluscon
unbef
achtziger
##aktivitäten
##ych
Pfad
Dichte
Roberto
vermögen
intelligen
Kraftfahrzeug
spezialisierte
##Natur
##szeit
##ingischen
Verhaftung
verlängern
Inbetriebnahme
##ilsen
##weils
...,
Borg
Balken
radikal
gelingen
montiert
Repräsent
mittelbar
##jana
28,
##haler
(§13
Amal
Dark
Haas
Depot
Jonas
niedrigeren
##krö
Office
drückt
Schuldners
McL
##demann
##Führung
Modellen
##sohn
126
Kreb
##trauen
##Berliner
sexuell
Eheleute
Christina
Wertpapier
urkundliche
145
absur
Effizienz
##bayerischen
##onde
260
Boss
Hyper
Brandt
##vorkommen
Facharzt
befürwor
zentraler
##eith
##nette
##balken
Saale
Gedanke
wirkten
Schiefer
Stärkung
verursachen
Jel
pein
Polens
Mehrfach
ankommen
anzuerkennen
schrittweise
##VGH
##ilo
xxx
geförder
Testaments
##artz
zir
Israels
Besteuer
Malaysia
##gäu
##kenn
fre
##onten
Nina
Soul
##phasen
Scham
##ungsanstalt
vernichten
Rechtsfehler
Bürgermeisterin
Rout
böse
Canad
##auschen
##glichkeit
Progress
verfügbaren
##Ausgabe
Einwei
##Minister
Aufsatz
gliedert
gewünschten
nachfolgende
##cul
##hent
Anger
##lichung
erstrecken
identifizieren
##LP
1,7
##smann
Fisk
wild
Osman
Intensiv
erkrankt
Fortführung
weitreichen
Freundschafts
##kühl
##ylon
Kubik
begrenzen
##rikan
##aserne
gelie
gültig
Sakrist
Gelehrten
tragenden
##endar
##ziehe
##beweis
##zwecke
Ablösung
geringem
Unterschriften
Stä
##ynamik
##richtungs
##ografische
hinzugefügt
überarbeitet
##uta
Nem
Ries
Kraus
Comics
Autorität
sachgerecht
##eper
##aming
##orisch
Wirts
mechan
enthielten
##ydraul
Hexen
##ilderte
Justin
befugt
staats
gedient
unberührt
orientierten
132
##velop
Toni
Boxer
bauliche
verkörperte
Steuerhinter
zurückzukehren
##anschau
Libert
europa
Ältere
Erwerbsm
Paradies
Mindestens
legendären
interessieren
Staatsanleihen
übereinstimmend
##Lou
Ahr
##ufers
Sehnsucht
##rode
begrüßt
Memorial
verlaufenden
##rose
##Fonds
Walk
reflekt
##vorsteher
Darlegungs
Verbündeten
Geschäftsmann
Beschränkungen
Schriftstellers
##autos
##inland
Appar
##Technik
##führern
Petrus
Stände
Fahrgast
##insbesondere
Kaufvertrag
arbeitsvertrag
Geschäftsstelle
##kugel
##ätige
Wrest
##gewässer
Playoffs
Beschuldigten
##fristen
Beschä
Sizilien
klägerischen
##uddh
Emig
Boots
unvor
Lippen
Registr
##kraftwerke
Stammspieler
Einb
Töne
diene
2007/08
Arizona
Exemplar
##herapeuten
streitige
##ily
VV
Böse
haften
Schlicht
Minderung
Strafkammer
ragt
##ärztliche
Souverän
##zid
Ib
##,...
Achse
Judent
##gewinnen
Holstein
darzustellen
Gy
Valentin
##ogels
verbietet
Lateinamerika
|
(9
Lebe
##scheine
gültige
210
##azins
##zielle
Manhatt
willkürlich
##code
##orer
Conn
##sehbar
Stadtmauer
Vergnügungs
Nichtzulassungs
##8/
Know
Talk
##wartung
Seiden
prägen
Bahnsteig
##Tag
50.
##etzer
traum
Wisconsin
Unterdessen
NStZ
Pelz
wahl
##Gipfel
Vorstoß
Befragten
palästinens
übersteigen
Freistellung
##minüt
##räten
##sches
Gaul
Buddh
Gemäl
##iuseppe
geomet
Kräften
Horizont
Betriebsrente
##neub
Ever
Pharm
##urteils
Motiven
Kunstwerke
##EF
##alais
Dahl
##befugnis
Kammern
wohnten
Wahlbezirk
verstärken
##bock
Cart
Kurven
Pianist
Altersgrenze
##Maria
schräg
sa
14-
6,5
##mandat
Fläch
Sumpf
##ürzen
hast
Straub
##spfleger
steuern
Kasachst
Conference
17-
Hosen
blaue
Chelsea
Bestehens
Astronomen
Kindertages
vorzeitigen
##olds
##Frauen
##ausbau
##schach
Gesand
verleiht
befreundet
gefährliche
Zwischenzeit
##blut
##kante
##ugger
verantworten
##No
5-
Franklin
Kritikern
Ludwigshafen
##nit
Bahr
Kansas
Kritiken
Vorsicht
doppelte
entführt
##aug
##korn
Slg
##warnung
##willigen
bewahrt
Lübecker
Weihbischof
einzuhalten
##Fr
Dü
##Krise
##wäldern
500.000
Aufnahm
Limburg
dunkler
##kurrenten
Großraum
Spanisch
durchquert
##feldt
Zufl
zert
##eigene
Gilbert
##erober
Nieren
Palästina
Stadtbahn
Geständnis
unterstand
angestrebten
##Klein
##Martin
##langer
Import
profil
Delegierten
umgestaltet
##Verb
##ausweis
Annäherung
freundlich
Finanzgericht
Achsen
meines
angerufen
##mail
Einbruch
bedurfte
Wahlrecht
erfassten
Ingenieure
##icum
##Sender
Tscha
beweg
Tausend
ernähren
spiegelt
Besoldung
verschafft
zustehenden
Kunstakademie
auszugleichen
Timo
erbe
Gauck
Austrag
50,
##fähiger
Propst
Divisin
Sachverhalte
zutreffenden
Dö
550
##Fernseh
Rafael
Sierra
Indiana
##bb
verank
anderweitig
Freitagabend
Unterzeichnung
##ippt
text
Helene
##Junioren
##umstände
Abfluss
sportlich
##dist
##clubs
##gelenk
redet
trieb
Antwer
ehrenamtlichen
##quet
Philippe
inszenierte
##fallende
Algerien
Missions
einstige
Gefangene
##avy
umk
##sperr
Krum
##atiker
##vaters
Lösch
Orange
##ziehende
Zunahme
Landsmann
beschließt
Vergewaltigung
##isi
138
##iaten
##abrechnung
Abtretung
Profession
##jar
##jas
sus
##atory
Shar
kelt
Sitten
dicken
##satzweise
hessische
Kulturdenkmale
##ted
Batt
##Sieger
##schuhe
begrenzte
ungeeignet
Ehrenbürger
##Mil
##drig
##gelb
##lies
##wehren
Insassen
prinzipiell
niedergelassen
##Post
Pep
##korps
schaden
Frühstück
skeptisch
Wittenberg
frühestens
##rechtsprechung
##Ep
betraf
Formation
Stadtwerke
##show
Kuh
##brüchen
Observ
Gouverneurs
pur
Schuster
siebziger
##pfälzischen
Attentäter
Belegschaft
militärisch
Umgestaltung
##Har
##oser
Drum
Vettel
##atoriums
Chronik
Wohngebiet
professionelle
##nehme
Passagen
gepflegt
Bewährungs
Jog
Non
##denberg
Krakau
Fliegen
##gebrochen
räumlichen
Inschriften
etablierten
luft
stol
##gütern
Betrachter
##verantwortung
##SF
##iae
##lepp
##moor
##inski
Fahnen
Teheran
Erbschaft
Fernseher
Nachbarorte
Pflanzenart
Schweizerischen
Skil
Nasen
##lässige
Aristo
Ranger
diskrimin
ordnungsgemäßen
##selbe
##ufakt
Appell
##ifestyle
optisch
##Abteilung
abgelegt
verziert
Antarktis
effektiven
Übersetzungen
##zyklus
Umkehr
Rassismus
Unionsrecht
Bischofsweihe
##irr
kürze
Reinhold
##pressionen
gespeichert
##bey
Loy
##heims
##läufigen
Hiervon
Erfolgen
entfaltet
iranischen
Wohnungsbau
Nahrungsmittel
##/96
##Sol
137
##debüt
##oskop
##russland
##wader
##fügten
##monaten
fasste
##Vorstand
Experte
spannend
Folgejahren
##run
Lj
##Terror
Stade
##energie
Castell
behaart
globale
erschöpft
repräsentiert
hintereinander
##farb
##gitter
##nowiki
Ausbild
wahrnehmen
uneingeschränkt
##bier
##egal
##ärmt
Hüb
##täter
##aspiele
partei
Wirkstoff
vertragliche
##Roy
Dep
NSA
3.000
Dallas
Wimble
strikt
##assungen
Normandie
Wah
##zulassung
Ökonomen
##materialien
sekund
Bescheiden
Großherzog
Veh
sen
Katze
##ähnliche
##rüsen
##wealth
Neffe
scheitern
ausgestorben
Ehrenmitglied
##WA
Bie
§132
##iffe
##schon
Lexikon
sechste
Bukarest
vierzehn
vorsätzlich
##Qualifikation
##ades
##ardi
176
##stest
##okolle
##uthent
##zusatz
Sobald
Conserv
bestellte
umzusetzen
##Originaltitel
Elb
brenn
überhö
##konflikt
##ätzliche
Ehrendoktor
Capt
Dave
Emot
Zeile
##getreten
Magdalena
Dienstzeit
Verfilmung
Haltestelle
abgegebenen
Prozentpunkte
weitestgehend
##upf
dr
bad
##inchen
##bauweise
2016/17
Solange
barocke
brandenburg
##find
280
Unters
stünde
##Medaille
##waffnung
Germany
heilige
nebenbei
Tischtennis
Hits
##ischten
Massaker
variiert
Mittleren
gewünscht
Einstufung
##aufwendungen
##UA
##Führ
##Mass
wiegt
##eröffnung
Ökonomie
##technische
##ungsbedürftig
Bruttoinland
gig
Duke
Zensur
univers
übersie
schießen
Oberstleutnant
##aha
Pool
Sagen
akust
schmale
Innovation
Herzinfarkt
grundsätzlicher
##War
##ancy
Läden
körperlich
##iac
##ahmen
##stark
Boxen
Legitim
Giuseppe
##schlaggebend
subjektiven
##strukturierung
##eill
mol
##kasus
Gotha
Maurer
erfolge
verehrt
Chemiker
Erschließungs
§29
Blum
prächt
Ablehnungs
Erbringung
bestimmtes
Familiengericht
##Kol
Fuk
Lenz
Wund
##helden
Boliv
Caspar
Legion
beigezogenen
internationales
##fär
##vre
##yne
DT
CIA
Tir
(196
##chteten
##spflege
arrang
##aufträge
Genehmig
Toiletten
Fälligkeit
unterstützten
Verwaltungsakts
Nash
viels
Spalte
Jay
##senator
##zumachen
Illustr
Bekannten
Stiftungen
Europapokal
Kulturgüter
Bunt
Mehl
Mieten
BetrAVG
diejenige
eingeräum
Werkstätten
Länderspiele
##,--
NZA
UWG
Enzy
weich
Contest
Montage
Uniform
bä
ve
##brenn
##kündung
##ssicher
Aufgebot
[...]
